<pad>	0
<unk>	0
<s>	0
</s>	0
<|system|>	0
<|user|>	0
<|assistant|>	0
<|end|>	0
▁	-3.58311
:	-3.61291
.	-3.96794
▁"	-4.29767
변	-4.39814
?	-4.40971
▁답	-4.41068
▁질문	-4.4276
,	-4.49962
":	-4.56319
년	-4.624
의	-4.6572
)	-4.71494
월	-5.14753
는	-5.2165
일	-5.23002
가	-5.25509
>	-5.26889
에	-5.28161
(	-5.29542
▁1	-5.33701
▁(	-5.33736
다	-5.36412
이	-5.42236
a	-5.47103
을	-5.52417
le	-5.56035
",	-5.57067
ro	-5.63593
▁몇	-5.64318
con	-5.65402
tent	-5.65735
▁2	-5.67448
▁{"	-5.67452
▁3	-5.71745
은	-5.71879
를	-5.76661
▁[	-5.78466
td	-5.89972
▁이	-5.90793
로	-5.90897
습니다	-5.91896
▁<	-5.95194
▁4	-5.95526
▁-	-5.95837
에서	-5.98447
개가	-6.0515
▁5	-6.08075
▁제	-6.09204
▁6	-6.11312
개	-6.12098
▁개	-6.12469
▁수	-6.14699
과	-6.19781
id	-6.2288
▁,	-6.25229
고	-6.2798
t	-6.29117
me	-6.31407
{"	-6.32753
인가요	-6.33079
▁7	-6.33397
user	-6.34467
q	-6.34799
ssa	-6.35134
ges	-6.35138
assi	-6.35528
▁더	-6.36305
?"},	-6.37156
와	-6.37928
한	-6.38236
개를	-6.38528
▁편집	-6.43485
▁10	-6.44345
▁8	-6.45844
도	-6.46286
으로	-6.4648
회	-6.47263
▁9	-6.49593
</	-6.50685
▁문서	-6.51076
기	-6.52612
stan	-6.54376
인	-6.555
▁중	-6.60002
지	-6.60197
▁어떤	-6.62188
대	-6.62255
▁《	-6.68106
-	-6.69388
▁있는	-6.71856
▁11	-6.72599
에는	-6.73565
2	-6.73878
▁있다	-6.74368
▁그	-6.75817
▁12	-6.77181
1	-6.77249
▁의	-6.77636
▁]	-6.77639
/	-6.77749
▁</	-6.80567
야	-6.85145
▁보기	-6.85303
▁A	-6.85763
▁B	-6.86044
▁가지고	-6.8691
자	-6.93398
하였다	-6.93595
스	-6.9378
어	-6.94349
▁무엇인가	-6.97594
▁19	-6.98202
했다	-6.98722
리	-6.99427
▁있	-7.00898
▁에	-7.01034
화	-7.01549
세	-7.02645
위	-7.02675
▁한	-7.04378
▁)	-7.04671
▁16	-7.05113
▁있습니	-7.06019
▁지금	-7.06701
▁~	-7.0715
▁받고	-7.08739
하는	-7.08955
><	-7.09366
▁남은	-7.10212
사	-7.10624
3	-7.12156
나요	-7.12958
></	-7.13334
▁0	-7.13579
▁나갔	-7.13716
▁다른	-7.13743
나	-7.14605
▁물품	-7.14861
▁오전에	-7.15188
▁들어오고	-7.15189
▁오후에	-7.15211
▁사용했	-7.15311
▁물품은	-7.15515
▁15	-7.15546
▁이름은	-7.16037
▁14	-7.16075
▁물건을	-7.16685
'	-7.17811
동	-7.18037
요	-7.19367
▁》	-7.20017
▁역	-7.21039
tr	-7.23009
▁'	-7.23325
된	-7.25606
주	-7.26273
창고에	-7.27613
·	-7.27619
만	-7.28304
4	-7.28637
서	-7.28728
▁어떻게	-7.30416
라	-7.3069
▁링크	-7.31286
▁미국	-7.31336
할	-7.31822
▁18	-7.31946
s	-7.32782
▁및	-7.33048
▁영화	-7.34123
이다	-7.3623
"	-7.3627
하고	-7.36829
▁13	-7.37686
▁모든	-7.38531
▁가	-7.3914
▁위키백과	-7.39472
게	-7.40251
▁있었습니	-7.43134
▁예	-7.43834
▁20	-7.44189
▁무엇일까	-7.44333
까	-7.44383
▁가장	-7.4439
해	-7.44591
p	-7.45039
▁대한민국	-7.4537
li	-7.46357
는가	-7.46548
시	-7.46575
하여	-7.48099
th	-7.49723
성	-7.50564
보다	-7.5149
▁팀	-7.5185
▁17	-7.5376
▁을	-7.54423
▁2018	-7.57059
▁상자	-7.57479
▁KBS	-7.5818
수	-7.59488
트	-7.59616
▁것이	-7.60455
차	-7.60645
w	-7.61243
▁2011	-7.61683
▁2017	-7.61819
▁과	-7.62165
부	-7.62877
▁대한	-7.63021
▁두	-7.63906
장	-7.64238
구	-7.6511
▁주	-7.66499
▁많	-7.67703
▁선	-7.68047
되었다	-7.68221
▁우리	-7.68539
상	-7.68859
▁리그	-7.69461
!	-7.70158
▁30	-7.70375
▁있고	-7.70755
▁때	-7.70782
호	-7.70831
▁22	-7.71191
▁2016	-7.71784
▁후	-7.72182
▁이후	-7.72608
▁상	-7.72966
▁[1]	-7.72972
5	-7.73289
조	-7.7356
▁에서	-7.73886
▁전	-7.74676
▁정책	-7.75179
▁27	-7.75416
▁따라	-7.75546
▁2013	-7.75779
▁등	-7.76041
▁일본	-7.76279
선	-7.76365
▁대	-7.77016
▁것은	-7.77388
▁뭐	-7.77798
년에	-7.78336
명	-7.79708
▁최근	-7.7985
면	-7.80663
원	-7.81139
강	-7.81274
▁시	-7.81311
▁25	-7.81564
▁로	-7.82163
》	-7.82276
▁2014	-7.82745
하게	-7.83207
▁아	-7.83221
미	-7.83442
에게	-7.83807
▁2010	-7.84158
아	-7.84314
▁대한민국의	-7.85514
▁위해	-7.85516
▁물건이	-7.85622
▁만들기	-7.85676
▁신	-7.85914
▁가기	-7.85914
진	-7.86144
▁구	-7.86258
▁26	-7.86547
▁정	-7.86709
▁토론	-7.87116
▁있을까	-7.87506
▁와	-7.87739
비	-7.87791
▁그의	-7.88454
▁백과사전	-7.88676
▁가리키는	-7.88689
▁도구	-7.88725
▁당시	-7.88733
전	-7.88823
을까	-7.89327
▁모두의	-7.89461
니	-7.89827
적	-7.89863
▁배우	-7.89901
▁둘러보기	-7.89965
b	-7.90236
▁바뀜	-7.90239
ikipedia	-7.90239
▁문서는	-7.90839
드	-7.90896
▁28	-7.90977
제	-7.91608
▁2012	-7.91955
8	-7.92124
인가	-7.92194
들이	-7.92571
▁사	-7.92943
▁목록	-7.93211
▁같은	-7.93521
▁2002	-7.93555
▁개인	-7.94219
우	-7.94427
▁F	-7.94615
한다	-7.95427
▁해는	-7.9547
▁/	-7.95528
▁누구인가	-7.95861
▁내	-7.96049
▁23	-7.96233
i	-7.96554
▁2009	-7.96788
▁그는	-7.96876
산	-7.97017
6	-7.97565
▁도	-7.97778
▁되었다	-7.97988
▁있으며	-7.98496
▁2008	-7.98668
▁언제인가	-7.98974
▁되는	-7.99227
▁어느	-8.00161
▁2015	-8.00307
소	-8.00311
▁한국	-8.0052
호선	-8.0149
▁것으로	-8.01739
▁된	-8.01745
▁함께	-8.01993
▁2019	-8.02005
▁나	-8.03007
중	-8.03104
▁21	-8.03344
마	-8.03466
▁날	-8.03606
▁것을	-8.04123
▁많은	-8.04175
표	-8.04259
▁지	-8.04384
nt	-8.04426
),	-8.04459
▁24	-8.04878
▁말	-8.04982
▁고	-8.05237
▁정보	-8.05255
▁외부	-8.05551
▁2007	-8.05675
▁[2]	-8.05676
▁여자	-8.05798
▁모두	-8.06451
▁유	-8.0654
sta	-8.06998
▁앨범	-8.0735
m	-8.07395
타	-8.07499
▁역사	-8.07565
군	-8.07635
▁마	-8.08522
▁무	-8.08625
▁부	-8.08892
들	-8.09246
▁비	-8.09389
▁국가	-8.0985
보	-8.10254
르	-8.10501
▁분류	-8.10605
오	-8.10702
▁를	-8.1102
▁또는	-8.11184
정	-8.11803
되어	-8.12135
▁언제	-8.12255
▁W	-8.12359
▁오	-8.12531
▁드라마	-8.12699
▁한다	-8.12876
용	-8.13006
형	-8.13124
▁서	-8.13411
▁경우	-8.13647
▁세계	-8.13744
’	-8.14997
▁또한	-8.15145
▁그러나	-8.15182
▁된다	-8.15604
▁안	-8.16472
경	-8.16554
상자	-8.17025
▁이용	-8.17029
▁하	-8.17148
▁김	-8.17407
▁소	-8.17803
하	-8.18046
당	-8.18372
▁현재	-8.1845
9	-8.18705
▁원	-8.19226
▁때문에	-8.1927
▁총	-8.19303
▁2004	-8.1937
▁있었다	-8.19824
▁M	-8.20069
▁조	-8.20323
현	-8.20647
재	-8.21019
▁책	-8.21019
▁2000	-8.21557
▁사람은	-8.21678
S	-8.22271
▁데	-8.22695
▁하는	-8.22697
▁후보	-8.22787
토	-8.22861
신	-8.23104
▁세	-8.23405
▁‘	-8.23452
▁31	-8.23613
▁방송	-8.2362
▁2003	-8.23941
▁강	-8.24272
▁출연	-8.24416
치	-8.24576
일까	-8.24716
적인	-8.24768
▁서울	-8.24841
▁경기	-8.25002
▁각	-8.25607
라는	-8.25634
▁관한	-8.25839
▁판	-8.26223
▁동	-8.26775
포	-8.26948
모	-8.26998
▁2005	-8.28065
▁내용은	-8.28128
▁[3]	-8.28133
D	-8.28364
던	-8.2838
▁산	-8.28431
▁·	-8.28508
▁양	-8.28874
권	-8.29003
라고	-8.30104
▁MBC	-8.30624
▁비고	-8.30635
교	-8.307
▁남	-8.30762
하기	-8.3121
식	-8.31636
▁영국	-8.31735
▁어	-8.31797
시오	-8.31911
▁박	-8.31966
▁미	-8.32436
▁언어	-8.32442
&	-8.32449
티	-8.32744
7	-8.32767
▁성	-8.32785
▁장	-8.32919
까지	-8.334
루	-8.33439
▁K	-8.33783
석	-8.33954
▁것	-8.34126
러	-8.34276
코	-8.34334
▁승	-8.34544
였다	-8.34719
▁해	-8.34753
▁수상	-8.34805
▁대전	-8.34813
분	-8.34852
관	-8.35149
▁첫	-8.35199
▁맡은	-8.35211
▁언제일까	-8.35244
▁2006	-8.35343
▁누구	-8.35402
▁S	-8.35686
▁1992	-8.35869
=	-8.36311
문	-8.36381
▁사람	-8.3659
▁활동	-8.36651
x	-8.37129
▁주소	-8.37136
▁프랑스	-8.37172
▁참고	-8.3741
▁기부	-8.37673
▁항목	-8.37713
▁특수	-8.37715
▁다시	-8.37786
▁은	-8.37871
국	-8.3875
들을	-8.38809
었다	-8.3883
▁소개	-8.39041
C	-8.39607
▁모	-8.40248
▁그리고	-8.40304
L	-8.40386
▁위한	-8.404
▁여	-8.4074
▁불	-8.40882
▁사용할	-8.40894
지만	-8.41413
▁있어	-8.41669
▁감독	-8.41997
▁는	-8.42255
파	-8.4245
노	-8.4247
▁다운로드	-8.42906
하십	-8.42909
org	-8.42956
▁[4]	-8.4299
▁연	-8.43134
▁29	-8.43139
계	-8.43209
입니다	-8.43223
0	-8.43372
▁중국	-8.43507
종	-8.43824
▁2001	-8.44
▁km	-8.44372
▁진행	-8.44516
별	-8.44571
▁사용자	-8.45178
에서는	-8.45322
e	-8.45475
▁통해	-8.45553
▁마지막으로	-8.45702
▁FC	-8.45839
▁의해	-8.45935
▁파일	-8.46038
▁어디인가	-8.46191
▁있었	-8.4622
▁h	-8.46252
민	-8.4626
▁시즌	-8.46265
들은	-8.46505
하며	-8.46731
히	-8.46841
안	-8.47013
ph	-8.47293
▁할	-8.47315
▁모바일	-8.47396
두	-8.47483
린	-8.4773
▁등록	-8.48372
▁of	-8.48387
▁SBS	-8.48388
▁누구일까	-8.48417
▁운행	-8.48527
▁리	-8.48617
▁호	-8.4896
입니	-8.50513
이나	-8.51001
▁기여	-8.51047
PDF	-8.51244
▁토막글	-8.51244
▁원본	-8.51273
ation	-8.51317
크	-8.51388
▁가수	-8.51707
▁보	-8.51793
천	-8.52482
▁독일	-8.53202
단	-8.53388
▁처음	-8.53436
된다	-8.53534
tt	-8.53648
▁연도	-8.53839
▁바	-8.53936
초	-8.54052
▁로그인	-8.54173
▁위키데이터	-8.54185
▁Inc	-8.54189
▁쿠키	-8.54192
▁모임	-8.54224
▁화제	-8.54244
▁동구	-8.54267
ound	-8.54307
▁지역	-8.54307
▁“	-8.54313
▁언제야	-8.54347
영	-8.54365
▁→	-8.54646
▁임의	-8.54759
▁최	-8.54779
ps	-8.55739
여	-8.55989
세기	-8.56015
키	-8.56017
▁아들	-8.56088
이라는	-8.56092
▁예선	-8.56097
표시	-8.56363
▁결과	-8.56396
▁공	-8.56424
예	-8.56546
▁데뷔	-8.56569
▁국회의원	-8.5684
▁제목	-8.56841
▁재	-8.56908
▁축구	-8.56974
▁고유	-8.57033
”	-8.57149
▁인쇄	-8.57188
▁3.0	-8.57214
▁검색	-8.57215
▁않음	-8.57216
▁도움말	-8.57216
▁요즘	-8.57216
▁개인정보	-8.57225
▁조항	-8.57225
▁저작	-8.57226
▁학력	-8.57233
://	-8.57233
▁추가적인	-8.57238
ko	-8.57256
▁계정	-8.57268
▁1986	-8.57269
▁조건이	-8.57279
일에	-8.575
▁약	-8.57522
▁국가에	-8.57571
▁외	-8.57703
M	-8.57708
체	-8.57815
▁32	-8.57928
유	-8.57979
운	-8.58747
10	-8.59276
▁음악	-8.59557
점	-8.59681
▁개발자	-8.59839
▁패	-8.60127
old	-8.60332
®	-8.60341
▁Wikimedia	-8.60341
▁없는	-8.60341
▁이름공간	-8.60341
▁커먼즈	-8.60341
▁크리에이티브	-8.60341
동일조건변경허락	-8.60341
tit	-8.60341
▁면책	-8.60341
내보내기	-8.60341
▁검색하러	-8.60341
▁메뉴	-8.60342
▁적용될	-8.60343
▁인용하기	-8.60346
▁자세한	-8.60348
▁vs	-8.60354
▁로그인하지	-8.60354
▁올리기	-8.60356
▁어디일까	-8.60364
▁약관	-8.60365
▁인쇄용	-8.60371
▁목차	-8.60371
▁읽기	-8.60371
▁등록되어	-8.60374
▁여기를	-8.60389
▁큰	-8.6039
▁대문	-8.60401
▁변수	-8.60431
▁글의	-8.60533
▁소유의	-8.60628
으며	-8.60889
▁둘러보기로	-8.60894
▁초	-8.61388
그	-8.61671
▁카	-8.61707
투	-8.62006
▁작품	-8.62097
▁문서로	-8.62571
적으로	-8.62658
공	-8.62787
▁기	-8.62797
억	-8.62971
승	-8.63001
연	-8.632
▁그룹	-8.63381
며	-8.6339
간	-8.63415
span	-8.63566
洞	-8.63568
up	-8.63588
▁1996	-8.63638
▁오사카	-8.6371
▁년도는	-8.63858
▁무엇이	-8.64068
TV	-8.64218
이며	-8.64229
14	-8.6425
▁다	-8.64901
▁이름이	-8.64952
▁포	-8.6601
카	-8.6642
▁1990	-8.66457
▁선거	-8.66529
▁우승	-8.6661
▁금	-8.66661
▁―	-8.66953
▁대해	-8.6698
▁C	-8.6709
▁이름	-8.67108
▁높은	-8.67121
프	-8.67216
▁노	-8.67282
광	-8.67357
▁번째	-8.67576
▁–	-8.67673
▁이를	-8.68683
▁화	-8.68923
즈	-8.68958
▁이는	-8.69069
터	-8.69285
▁알	-8.69429
n	-8.69492
~	-8.69519
▁감	-8.69832
▁피	-8.70108
왕	-8.70228
금	-8.70247
▁경기도	-8.70351
▁1998	-8.70423
▁[5]	-8.70451
h	-8.70601
이라고	-8.70684
▁반	-8.70685
▁음반	-8.70881
이었다	-8.70881
학	-8.71436
레	-8.71526
▁어디	-8.71743
▁토	-8.71847
되었	-8.72473
년까지	-8.72897
통	-8.72939
개의	-8.72983
년대	-8.73028
▁일부	-8.73517
했을까	-8.73721
c	-8.73814
▁FIFA	-8.73919
▁어워드	-8.73919
▁이러한	-8.7392
▁and	-8.73921
▁1993	-8.73946
▁이유는	-8.7401
▁추가	-8.74033
▁파	-8.74079
▁존	-8.74241
A	-8.74337
18	-8.74348
▁뒤	-8.74446
네	-8.74641
▁했다	-8.74927
▁실	-8.74954
▁등을	-8.75139
▁많이	-8.75194
되는	-8.7535
▁지방	-8.75561
▁사용	-8.756
_	-8.75608
N	-8.76213
▁TV	-8.7696
inde	-8.77128
무	-8.77246
청	-8.77296
州	-8.7762
▁텔레비전	-8.77623
▁「	-8.77785
▁자신의	-8.77852
양	-8.77871
▁진	-8.77981
▁제목은	-8.78032
▁기록	-8.78037
y	-8.78139
]	-8.78234
@	-8.78371
▁전쟁	-8.79226
하면서	-8.8021
▁하나	-8.80249
ul	-8.80373
▁경	-8.80428
▁일	-8.8045
」	-8.80469
▁즉	-8.80809
▁인	-8.80829
생	-8.81271
▁P	-8.81489
▁평균	-8.81492
▁영	-8.81507
cm	-8.81508
▁국도	-8.81549
후	-8.81613
▁날짜는	-8.81632
▁진출	-8.81644
▁1999	-8.81658
▁1995	-8.817
▁남자	-8.81884
역	-8.81904
▁배	-8.82124
▁받은	-8.82298
d	-8.83742
테	-8.8422
▁명	-8.84275
려	-8.84926
▁월드컵	-8.85193
CV	-8.8523
月	-8.85469
〉	-8.85469
▁대전광역시	-8.8547
▁인해	-8.85474
▁결국	-8.85497
▁최고	-8.85797
20	-8.85853
브	-8.85903
건	-8.86153
▁엔터테인먼트	-8.86333
▁만	-8.86888
데	-8.86997
▁위	-8.87187
▁유럽	-8.87291
발	-8.87473
▁점	-8.87527
행	-8.87607
60	-8.88357
▁차	-8.8844
내	-8.88532
▁이탈리아	-8.88907
▁항공	-8.89075
▁시작	-8.89118
▁않는	-8.89165
▁기간	-8.89276
희	-8.89307
▁삼	-8.89333
▁O	-8.8944
▁이미	-8.89617
日	-8.89634
▁USS	-8.89636
▁플레이오프	-8.89703
▁로마	-8.89721
▁아나운서	-8.89774
▁포함한	-8.89782
33	-8.89906
▁교구	-8.8998
배	-8.89983
▁&	-8.9021
▁될까	-8.90217
▁100	-8.9034
츠	-8.90494
목	-8.90797
▁사람의	-8.91252
길	-8.91456
설	-8.91719
실	-8.91879
▁하였다	-8.91915
했던	-8.92286
▁백	-8.92488
▁방	-8.92668
하지	-8.92771
론	-8.92789
▁들어	-8.92816
물	-8.93702
▁인도	-8.93715
랑	-8.93723
▁ISBN	-8.93984
▁지하철	-8.93985
▁도쿄	-8.93987
▁여러	-8.94016
▁1983	-8.94035
▁부산	-8.94049
▁잘	-8.94054
▁〈	-8.94054
com	-8.94102
▁기록한	-8.94183
▁있던	-8.94191
▁한국어	-8.94222
▁호기	-8.94231
태	-8.94235
▁1997	-8.94331
T	-8.94595
▁라	-8.94683
▁하지만	-8.94748
▁동안	-8.95102
집	-8.95437
봉	-8.95458
될	-8.95649
부터	-8.96084
▁물	-8.96103
▁R	-8.96432
31	-8.96856
가요	-8.96954
▁베	-8.97073
▁현	-8.97482
▁당	-8.97664
▁가진	-8.97874
▁다음	-8.9807
▁싱글	-8.981
▁현대	-8.98227
▁출신	-8.98253
림	-8.9826
번	-8.98328
▁마지막	-8.98371
▁교	-8.98452
15	-8.98465
▁무슨	-8.98549
▁1980	-8.98551
▁한편	-8.98598
▁특히	-8.98605
곡	-8.98628
란	-8.98638
▁담은	-8.98648
▁MC	-8.9891
)·	-8.98931
세는	-8.99044
순	-8.99075
▁이름을	-8.99081
더	-8.99165
병	-8.9934
선거구	-8.99503
년부터	-8.99566
▁무엇	-8.99691
▁스	-8.99903
달	-8.99954
▁저	-8.99969
▁적	-9.00079
피	-9.00132
▁문	-9.00443
임	-9.00455
작	-9.01087
▁주로	-9.01149
68	-9.01233
▁D	-9.01435
▁매	-9.01507
▁갑	-9.01724
령	-9.019
쿠	-9.0209
▁생산	-9.02281
▁문서를	-9.02337
▁왕	-9.0234
지는	-9.02456
▁열	-9.02711
방	-9.0291
g	-9.02929
▁노래	-9.0294
▁교황	-9.03071
션	-9.03202
▁각주	-9.03225
▁군	-9.03238
펜	-9.03288
▁태어났	-9.03291
▁기타	-9.0335
▁영향을	-9.03441
▁등이	-9.03442
▁구장	-9.03455
▁처음으로	-9.03554
버	-9.03559
▁홈	-9.03632
▁선수	-9.03706
▁사망한	-9.0372
들의	-9.03923
▁누가	-9.03948
40	-9.04017
규	-9.04025
▁in	-9.04158
▁연도는	-9.04202
거	-9.04499
f	-9.04639
▁H	-9.04671
▁가지	-9.04789
창	-9.04942
▁되어	-9.05014
박	-9.05226
덕	-9.05316
로부터	-9.05503
13	-9.05509
km	-9.05567
에도	-9.05983
▁어떠한	-9.06054
▁우	-9.0614
래	-9.06192
11	-9.06427
12	-9.06945
▁대학	-9.07108
B	-9.07221
▁하고	-9.07254
▁실패	-9.07284
▁이전	-9.07345
▁없다	-9.07441
▁194	-9.07622
▁계	-9.07628
▁묶음	-9.07782
▁윤	-9.07792
▁번	-9.07902
우체국	-9.08173
▁대학교	-9.08175
▁새	-9.08222
▁브라질	-9.08242
처럼	-9.08272
▁NHK	-9.08291
▁디지털	-9.08291
▁않고	-9.08291
▁임	-9.08379
▁새로운	-9.0838
30	-9.08464
리그	-9.0852
였던	-9.08843
G	-9.09485
▁광	-9.09561
외	-9.09659
▁심	-9.09667
난	-9.09768
▁으로	-9.09913
example	-9.10091
▁팀은	-9.10116
▁발견	-9.1025
급	-9.10265
워	-9.10499
▁경기에서	-9.10612
▁영어	-9.1066
▁197	-9.1071
26	-9.10868
▁게임	-9.11467
▁200	-9.11682
▁발매	-9.11833
량	-9.11882
▁연구	-9.11902
▁분	-9.12082
▁자	-9.12129
▁정도	-9.12227
했고	-9.12376
▁속	-9.1245
▁지원	-9.12485
▁입	-9.12486
▁50	-9.12985
▁올림픽	-9.13355
▁출생	-9.13402
준	-9.13435
면서	-9.13465
▁1994	-9.13523
▁크게	-9.13578
부작	-9.13607
▁동문	-9.13616
▁고려	-9.13627
")	-9.13654
▁철도	-9.13804
해야	-9.1384
▁35	-9.13878
본	-9.13929
▁타	-9.14001
▁묶음에	-9.14094
▁대구	-9.14273
남	-9.14368
졌다	-9.14518
디	-9.14675
▁년도에	-9.14695
락	-9.14762
▁T	-9.148
메	-9.15179
질	-9.15227
▁예를	-9.15319
암	-9.15522
▁목	-9.15523
▁No	-9.15539
▁발	-9.15777
방송	-9.15817
▁어떠한가	-9.15968
▁정부	-9.16016
서준는	-9.16068
대로	-9.16086
▁학교	-9.16323
▁간	-9.16358
거나	-9.16424
습니	-9.16487
▁문화	-9.16722
▁달	-9.16955
▁사이	-9.17113
▁도입	-9.17829
▁스페인	-9.17874
▁형	-9.18062
▁최우수	-9.18136
▁곳은	-9.1911
▁서울특별시	-9.1911
▁기원전	-9.19119
▁미사일	-9.19184
▁1991	-9.19194
▁교차로	-9.19201
▁비디오	-9.19201
▁않았다	-9.19244
▁순위	-9.19259
▁올	-9.19307
<	-9.1935
▁가톨릭	-9.19356
▁최초의	-9.19414
▁역할을	-9.19473
바	-9.19496
▁주요	-9.19506
되었을까	-9.19558
▁치	-9.19771
기를	-9.19894
▁곡	-9.19946
▁거의	-9.2004
▁V	-9.20181
하였으며	-9.20331
평	-9.2071
▁U	-9.20998
살	-9.2105
▁소속	-9.2105
송	-9.21111
열	-9.21177
는데	-9.21266
▁이에	-9.21408
▁애	-9.21494
철	-9.21535
현우는	-9.21589
▁33	-9.21654
날	-9.21837
대학교	-9.21883
▁운동	-9.22084
K	-9.221
유진는	-9.22115
FM	-9.22202
▁부터	-9.22709
▁방송국	-9.22747
▁40	-9.22916
되고	-9.2292
편	-9.23081
▁일본의	-9.23136
▁대통령	-9.23141
▁제작	-9.23517
▁그리스	-9.23683
▁코	-9.24029
▁조선	-9.2416
블	-9.24259
▁45	-9.24479
▁황	-9.24485
▁상대	-9.24643
25	-9.24738
도록	-9.24807
▁랭킹	-9.24992
▁태어난	-9.24992
▁닌텐도	-9.24992
▁[8]	-9.24992
도윤는	-9.24993
▁만든	-9.25001
▁부른	-9.25006
▁합계	-9.25008
▁용인시	-9.25041
되지	-9.25046
▁1985	-9.2508
▁라디오	-9.25089
▁뉴욕	-9.2509
▁the	-9.25126
▁1988	-9.25172
85	-9.25214
▁경기장	-9.25349
▁회차	-9.25428
져	-9.25448
▁개혁	-9.25499
▁for	-9.25603
)</	-9.25614
심	-9.25635
▁인터넷	-9.25655
으로서	-9.26035
▁볼	-9.26105
되었습니	-9.26174
언	-9.26297
반	-9.26321
▁이다	-9.2636
▁친	-9.26386
▁온	-9.26458
r	-9.2651
▁발사	-9.26603
속	-9.26747
▁거	-9.26796
▁허	-9.27139
▁d	-9.27545
사단	-9.27553
색	-9.27623
▁용	-9.27689
F	-9.27698
판	-9.27749
하윤는	-9.27851
저	-9.27891
%	-9.2797
주의	-9.28053
촌	-9.28222
으나	-9.28317
▁졸업	-9.28358
애	-9.28361
삼	-9.28459
영어	-9.28661
위를	-9.28672
▁될	-9.2869
▁역을	-9.28836
▁그를	-9.28892
▁단	-9.28995
▁34	-9.29004
▁레	-9.2909
▁등의	-9.29285
하면	-9.29507
▁인간	-9.29754
▁시리즈	-9.298
▁시청률	-9.29846
▁역할	-9.29972
▁년도	-9.29984
▁돌	-9.30072
▁따른	-9.30159
▁각각	-9.30205
▁종	-9.30439
▁전투	-9.30443
▁프로그램	-9.30549
k	-9.30844
▁연극	-9.30976
▁청	-9.31003
▁아니라	-9.31023
▁군사	-9.31148
링	-9.31167
▁스포츠	-9.3119
▁가운데	-9.31242
▁태어남	-9.31242
▁루트	-9.31275
mg	-9.31287
br	-9.31288
▁정규	-9.31295
▁관련하여	-9.31297
▁같이	-9.31316
▁전라남도	-9.31328
▁않는다	-9.31328
▁것들이	-9.31342
하라	-9.31399
복	-9.31441
▁[6]	-9.31468
▁있는데	-9.31556
▁광주	-9.31578
▁과거	-9.31591
▁행정	-9.31592
O	-9.31687
하던	-9.31696
▁출연한	-9.31742
▁나타내는	-9.31753
▁무엇을	-9.31757
▁with	-9.31888
▁뉴스	-9.31963
▁따라서	-9.31973
▁송	-9.32202
▁에게	-9.32538
▁활동을	-9.32569
▁삼성	-9.32631
▁38	-9.32681
▁권	-9.32682
위원회	-9.32818
47	-9.33026
▁창고에	-9.3309
▁만들	-9.3323
성을	-9.33425
씨	-9.33433
았다	-9.33464
족	-9.33485
▁G	-9.33526
업	-9.3353
약	-9.33633
07	-9.33704
▁창	-9.33776
할까	-9.33778
▁있다고	-9.33852
08	-9.3403
하였고	-9.34215
범	-9.34512
서연는	-9.34766
망	-9.34857
▁에는	-9.34977
▁("	-9.35045
기는	-9.35345
▁발매일	-9.3544
27	-9.3609
▁자연	-9.36141
▁달리	-9.36226
▁공격	-9.36343
▁어떠했	-9.36438
환	-9.36966
▁손	-9.36997
▁직업	-9.3704
탄	-9.37078
▁시행	-9.3711
▁관련	-9.37267
▁생애	-9.3733
▁주장	-9.37368
기도	-9.37369
에서의	-9.3758
▁과정	-9.37623
▁최종	-9.37844
▁승차	-9.37863
▁해당	-9.37864
城	-9.37902
▁UEFA	-9.37909
▁않은	-9.37909
▁없이	-9.37909
龍	-9.37909
▁기독교	-9.37913
▁레이블	-9.37917
▁폐지	-9.37918
▁다양한	-9.37927
민서는	-9.37946
▁공연	-9.37952
▁매우	-9.37961
▁FA	-9.37979
▁남구	-9.3805
!!	-9.38051
▁받았다	-9.38111
▁43	-9.38145
▁37	-9.38165
▁역시	-9.38419
▁나라는	-9.38437
▁대회	-9.38442
▁고대	-9.38515
90	-9.38531
▁뉴	-9.3872
▁중앙	-9.38783
▁어디에	-9.38784
▁N	-9.38813
회의	-9.38943
>1	-9.38985
16	-9.39023
▁극	-9.39213
▁인물	-9.3929
법	-9.39303
▁쇼	-9.39388
▁천	-9.39535
▁역사는	-9.39989
극	-9.40074
▁지역의	-9.40148
온	-9.40162
▁수는	-9.40171
▁사람이	-9.40418
▁라는	-9.40639
멘	-9.41189
년에는	-9.41396
大	-9.41698
▁변경	-9.41776
▁42	-9.41852
동대문구	-9.41912
▁뒤에	-9.41929
추	-9.42159
친	-9.42176
▁홍	-9.42188
51	-9.42351
▁발표	-9.42437
되었는가	-9.42446
▁시대	-9.4245
P	-9.42535
로서	-9.42597
50	-9.42673
훈	-9.42783
▁학생	-9.42964
▁도시	-9.43135
▁아버지	-9.43271
▁모델	-9.43656
▁사랑	-9.43899
기에	-9.43957
▁부여	-9.44017
▁본	-9.44155
U	-9.44237
례	-9.44277
하기도	-9.44306
▁해군	-9.44316
했으며	-9.44402
▁일반	-9.44414
▁보통	-9.44608
녀	-9.44724
▁개의	-9.44761
▁보고	-9.44783
▁버	-9.44841
▁독립	-9.44891
▁교수	-9.44906
▁36	-9.44977
슨	-9.4498
▁계속	-9.44987
▁직접	-9.45018
▁성장	-9.45051
▁"22"}]}	-9.45052
▁English	-9.45052
▁Entertainment	-9.45052
▁밝혔	-9.45052
▁살아있는	-9.45052
▁숨은	-9.45052
▁아닌	-9.45052
▁에피소드	-9.45052
▁"32"}]}	-9.45052
▁"30"}]}	-9.45052
Money	-9.45053
지훈는	-9.45053
▁화폐	-9.45057
▁동시에	-9.45061
▁의한	-9.45086
▁[9]	-9.45093
▁얼마나	-9.45109
▁관련된	-9.4513
▁하계	-9.45133
▁조직	-9.45139
▁있었던	-9.45165
▁중복	-9.45215
▁소속사	-9.45248
▁설치	-9.45251
▁자신이	-9.45266
▁애니메이션	-9.45376
▁승리	-9.4548
▁개통	-9.45499
▁최대	-9.45499
▁—	-9.45585
▁프로	-9.45613
▁이상	-9.45645
▁미국의	-9.45677
▁로즈	-9.45683
▁뮤직	-9.45796
▁디	-9.45816
▁=	-9.4582
l	-9.45944
다는	-9.46098
가지	-9.46135
세가	-9.46261
▁역대	-9.46342
▁결과는	-9.46411
▁일을	-9.46621
on	-9.46664
▁E	-9.46693
▁구분	-9.46762
5",	-9.47008
력	-9.47139
▁시기	-9.47271
+	-9.47562
57	-9.47865
▁프랑스의	-9.47903
thing	-9.47978
혜	-9.47997
▁FM	-9.48685
류	-9.48849
품	-9.48947
직	-9.49058
고등학교	-9.4917
28	-9.4942
각	-9.49677
진다	-9.49757
때	-9.49761
▁되	-9.50009
▁함	-9.50037
▁사건	-9.50344
에서도	-9.50437
▁L	-9.50602
▁신화	-9.50622
▁수원	-9.50658
▁아르헨티나	-9.50967
▁북	-9.51077
▁배역	-9.51093
53	-9.51114
립	-9.5139
▁정당	-9.51432
하다	-9.51632
▁드	-9.5165
▁대신	-9.51929
▁작가	-9.52125
성이	-9.52177
▁위치한	-9.52281
▁앞	-9.52368
▁법률	-9.52637
▁출	-9.52727
▁아일랜드	-9.52729
▁챔피언	-9.52741
MHz	-9.52744
▁민주공화당	-9.52744
▁송신소	-9.52744
▁유나이티드	-9.52744
▁ISO	-9.52744
浦	-9.52744
▁"33"}]}	-9.52744
▁1987	-9.52744
▁"20"}]}	-9.52744
▁뮤직비디오	-9.52744
山	-9.52745
kW	-9.52752
▁완성해	-9.5276
▁부근	-9.52767
▁루비	-9.52775
▁공동	-9.52796
▁윤아정	-9.52873
▁사용하는	-9.52911
▁기술	-9.52913
▁1945	-9.52979
ar	-9.53006
▁만들어진	-9.53027
▁입니다	-9.53059
▁의해서	-9.53061
▁그가	-9.53095
▁아시아	-9.53129
▁195	-9.5314
の	-9.53141
▁1976	-9.53162
▁[7]	-9.53191
▁아버지는	-9.5336
▁경제	-9.53469
▁빈	-9.53643
년간	-9.5378
▁초기	-9.53815
19	-9.54134
▁문을	-9.54162
▁팔	-9.54834
▁동부	-9.54859
▁스타	-9.54997
▁추	-9.5503
23	-9.55425
▁연기	-9.55554
▁전기	-9.55591
등	-9.55943
▁관계	-9.55945
▁메	-9.5601
세의	-9.56101
▁레이	-9.56117
▁통	-9.56132
였	-9.56231
▁팬	-9.56498
32	-9.56656
▁성공	-9.56703
00	-9.56752
▁난	-9.5704
▁Me	-9.57095
이자	-9.57123
절	-9.57329
▁키	-9.57518
록	-9.5754
▁합	-9.57664
운동	-9.5777
X	-9.57788
커	-9.58028
스트	-9.58068
▁쓰	-9.58291
▁시간	-9.58485
▁정치	-9.58808
▁아이	-9.58992
전에서	-9.59106
▁밴드	-9.59556
u	-9.5958
▁이야기	-9.59755
▁수도	-9.59811
▁만화	-9.59885
리아	-9.59942
▁수행	-9.59953
▁189	-9.60218
17	-9.60367
▁가족	-9.6038
▁하루	-9.60396
헌	-9.60616
▁종교	-9.60661
▁선발	-9.60775
▁보인	-9.60796
▁위해서	-9.60913
▁받았	-9.60944
▁포르투갈	-9.60954
찬	-9.60985
묘	-9.61032
°	-9.61065
東	-9.61073
里	-9.61076
三	-9.61077
年	-9.61077
▁마드리드	-9.61077
德	-9.61077
集	-9.61077
▁"21"}]}	-9.61077
▁Diocese	-9.61077
▁PolyGram	-9.61077
▁中文	-9.61077
▁데이터베이스	-9.61077
▁인디애나폴리스	-9.61077
▁좋은	-9.61077
▁"29"}]}	-9.61077
▁무정차	-9.61077
▁알차게	-9.61077
面	-9.61077
body	-9.61078
▁Filmed	-9.61078
▁여러분의	-9.61078
▁준우승	-9.6108
▁콜츠	-9.6108
▁여름	-9.61092
▁참조	-9.61095
▁들면	-9.61118
▁조작	-9.6113
▁1982	-9.61139
▁지식으로	-9.61141
▁주연	-9.61156
▁조별	-9.61159
▁1979	-9.61191
▁2.1	-9.61195
▁발생한	-9.61207
▁위하여	-9.61223
▁잔디	-9.61224
▁장미	-9.61233
▁글은	-9.61267
▁1920	-9.61269
▁하차	-9.61302
▁구원	-9.61324
▁41	-9.61332
▁대표	-9.61333
-0029	-9.61357
▁발매한	-9.61364
▁연합	-9.61404
▁가르	-9.61419
▁있지만	-9.61473
▁자기	-9.61578
▁국	-9.61663
▁보다	-9.61809
▁집	-9.61835
▁연대	-9.61864
▁90	-9.61866
▁환경	-9.61871
▁지구	-9.61913
▁루이	-9.6194
▁만들어	-9.61941
▁혁명	-9.6196
▁누	-9.62215
▁학	-9.62265
▁오수	-9.62399
장은	-9.62432
▁인조	-9.62444
▁Re	-9.6251
했는데	-9.6263
▁에어	-9.62652
▁196	-9.62852
일부터	-9.6293
▁The	-9.6297
수는	-9.63002
명의	-9.63092
▁(18	-9.63181
02	-9.63393
니다	-9.63588
"(	-9.63793
하였는	-9.63924
▁중에서	-9.63928
▁배우는	-9.64232
▁봉	-9.6425
▁생	-9.6433
た	-9.64347
갑시	-9.64457
▁투	-9.64622
▁경찰	-9.64656
북	-9.65124
▁기자	-9.65525
음	-9.65746
항	-9.66069
▁체	-9.66071
▁네	-9.66535
슈	-9.66566
▁결	-9.66598
월에	-9.66644
▁사고	-9.66709
출	-9.66733
▁500	-9.66817
만이	-9.66859
말	-9.67074
▁거리	-9.67093
필	-9.6713
흥	-9.67145
W	-9.67221
완	-9.67222
▁n	-9.67292
▁국제	-9.6733
김	-9.67354
드라마	-9.67366
시즌	-9.6739
배우	-9.67397
번째	-9.67525
▁있을	-9.67654
▁민	-9.67863
▁계약	-9.67951
▁페	-9.68092
함	-9.68128
an	-9.68156
갑	-9.68241
이었던	-9.68347
▁개발	-9.68454
▁채	-9.68609
▁클럽	-9.68699
▁준	-9.68701
들로	-9.68774
▁관	-9.6878
▁나라	-9.68911
400	-9.6898
▁황제	-9.69147
▁오스트레일리아	-9.69154
택	-9.69223
익	-9.6928
-0012	-9.69406
05	-9.69514
▁잡	-9.69606
▁차트	-9.69647
▁시스템	-9.69654
)-	-9.69698
▁밀	-9.69866
▁딸	-9.69878
▁체험	-9.69895
▁티	-9.69931
▁후에	-9.69985
;	-9.70021
우편취급국	-9.70058
릴	-9.70068
간계	-9.70108
▁연출	-9.70127
▁선택	-9.70132
▁방영	-9.70138
04	-9.70142
균	-9.70144
▁요	-9.70163
▁블루	-9.70168
▁갖고	-9.70168
▁네덜란드	-9.70168
▁로맨스	-9.70168
▁헨리	-9.70168
南	-9.70168
▁"25"}]}	-9.70168
▁만드는	-9.70169
▁울산	-9.7017
▁패널	-9.70171
▁중요한	-9.70171
▁탈락	-9.70173
▁그래서	-9.70179
▁좌석수	-9.70181
▁폭발	-9.70182
▁베스트	-9.70184
▁어땠을까	-9.70189
▁열린	-9.70212
▁구성원	-9.70217
▁인천	-9.70225
▁넘어	-9.70247
▁여기에	-9.70289
▁이유로	-9.7029
▁롯데	-9.70322
▁김영민	-9.70328
▁토론토	-9.7034
▁수월관음도	-9.70342
▁이런	-9.70383
됐다	-9.70406
09	-9.7041
▁정씨	-9.70436
▁홀	-9.70438
▁...	-9.70482
▁속한	-9.70512
▁투수	-9.70523
▁초대	-9.7059
▁음력	-9.70591
▁노선	-9.70606
▁그대로	-9.70636
▁문제가	-9.70648
-002	-9.70668
▁조지	-9.70683
)"	-9.70761
자를	-9.70772
▁녹	-9.70776
▁자유	-9.70807
▁이름으로	-9.71051
▁칸	-9.71098
▁종목	-9.71108
▁방송일	-9.71111
▁부문	-9.71133
▁지역은	-9.71256
▁있게	-9.71273
▁지역을	-9.71497
▁있다는	-9.71536
▁선거에서	-9.71604
▁생각	-9.71728
▁나이	-9.71901
▁J	-9.71976
하였으나	-9.72026
▁등장한	-9.72144
▁스키	-9.72155
습	-9.72244
▁서로	-9.72323
▁쿠	-9.72413
▁살	-9.72627
▁격	-9.72658
▁경기에	-9.7267
베	-9.72869
▁결정	-9.72885
▁X	-9.73053
▁줄	-9.73059
"}]}	-9.73127
▁세디	-9.73164
▁멸망	-9.73288
먼	-9.73388
▁표	-9.73433
▁대체	-9.73469
v	-9.73488
▁쉽	-9.73642
▁70	-9.7367
▁원인이	-9.73795
독	-9.74123
매	-9.74162
▁47	-9.74303
으로부터	-9.74384
명을	-9.74422
▁평가	-9.7455
59	-9.74698
했으나	-9.74816
▁전에	-9.7484
▁얼마	-9.75551
팀	-9.75671
컵	-9.75846
볼	-9.75883
향	-9.76005
시간	-9.7613
▁타이	-9.76202
8",	-9.76293
01	-9.7631
윤	-9.76385
몬	-9.76479
es	-9.76498
몽	-9.76504
스크	-9.76731
골	-9.76762
톤	-9.76763
▁법	-9.76845
함으로써	-9.76864
교통	-9.76943
팔	-9.77032
▁시절	-9.77083
▁52	-9.77109
갈	-9.77141
옥	-9.77213
▁이주	-9.77476
▁몇년도	-9.77516
61	-9.77744
영화	-9.77826
96	-9.77968
리는	-9.77984
▁사망	-9.78207
▁금지	-9.78332
▁별	-9.78433
▁기존	-9.78524
▁내용이	-9.79021
▁루블	-9.79063
▁경력	-9.79076
▁비밀	-9.79142
하는데	-9.79144
▁소유	-9.79159
▁덕	-9.79214
▁서하	-9.79217
▁조연	-9.79275
▁표현	-9.79369
94	-9.79431
▁방송사	-9.79453
▁게스트	-9.7946
혼	-9.79566
▁유지	-9.79608
-0013	-9.79611
했	-9.79624
움	-9.79657
▁반대	-9.79795
▁권력	-9.79839
▁담당	-9.79973
▁아시안	-9.79979
위원장	-9.79986
▁취임	-9.79997
▁슈퍼	-9.80009
▁긴	-9.80018
렌	-9.80041
▁승격	-9.80117
센	-9.80132
en	-9.80139
▁You	-9.80152
義	-9.80154
上	-9.80167
팅	-9.80168
い	-9.80168
李	-9.80168
▁日本語	-9.80168
▁덕아웃	-9.80168
▁삶을	-9.80168
▁새누리당	-9.80168
▁위키미디어	-9.80168
▁콘서트	-9.80168
▁"28"}]}	-9.80168
▁브릿	-9.80168
▁널리	-9.80169
金	-9.80169
▁"26"}]}	-9.80169
▁LG	-9.80186
▁신축	-9.80189
▁사회	-9.80198
▁AFC	-9.80199
▁황금	-9.80199
▁물론	-9.80202
▁공식	-9.80206
▁나온	-9.80222
▁본선	-9.80234
▁연속	-9.80265
▁공용	-9.80275
▁학사	-9.80277
98	-9.80328
시킨	-9.80345
-0006	-9.80401
▁1960	-9.80435
랜드	-9.80446
▁임시	-9.8045
▁특징은	-9.80473
▁죽은	-9.80477
▁것이라고	-9.80481
▁몰	-9.80484
al	-9.80495
▁올해의	-9.80498
▁1,000	-9.80562
▁버전	-9.80572
▁표를	-9.80573
▁봄	-9.80576
▁증가	-9.80607
▁지방도	-9.80626
▁특별출연	-9.80635
▁그녀의	-9.80643
▁1989	-9.8066
했어	-9.80666
▁구조	-9.8067
▁여성	-9.80717
▁역할은	-9.80734
▁65	-9.80791
▁연구를	-9.80813
리가	-9.80817
▁기준	-9.80926
들에게	-9.81024
▁평	-9.8108
.6	-9.81307
▁까지	-9.81522
▁120	-9.81533
▁선거구	-9.81686
E	-9.81734
시의	-9.81743
▁이어	-9.81798
되면서	-9.81831
▁위치	-9.8184
▁섬	-9.81938
자의	-9.81975
▁중구	-9.82194
▁날은	-9.82206
▁1984	-9.82244
조에서	-9.82272
▁부인	-9.82352
▁목록은	-9.82411
▁문제	-9.82694
▁슈	-9.82737
격	-9.82741
▁풍	-9.82785
▁그대	-9.82805
▁지역에서	-9.82868
▁한화	-9.83091
▁제작한	-9.83182
39	-9.83187
-1	-9.8333
▁개요	-9.83397
▁운영	-9.83503
▁일이	-9.83564
▁공개	-9.83673
▁배우에	-9.83703
.<	-9.84011
이트	-9.84129
▁얼마인가	-9.8416
상을	-9.84191
H	-9.84417
▁구성	-9.84419
ng	-9.84519
▁영국의	-9.84541
ed	-9.84671
▁씨	-9.84801
▁길	-9.84861
▁순	-9.84984
▁병	-9.85007
해서	-9.85125
▁폭	-9.85128
49	-9.85227
지고	-9.85438
▁이들	-9.85656
▁과일	-9.85921
▁(4	-9.85933
▁들	-9.86074
페	-9.86135
▁한국의	-9.86215
▁48	-9.8631
▁나는	-9.86362
스타	-9.86402
숙	-9.865
▁지나	-9.86586
▁결혼	-9.86926
근	-9.87123
▁(3	-9.87189
악	-9.87369
▁등장	-9.87431
▁대상	-9.87461
정을	-9.87489
견	-9.87737
조에	-9.87741
효	-9.88008
엔	-9.8811
웅	-9.88244
담	-9.88261
야구장	-9.88267
헤	-9.88312
풍	-9.88405
불	-9.88435
아파트	-9.88469
▁했을까	-9.88593
거리	-9.88614
동안	-9.88678
▁탐험	-9.88693
▁출연작	-9.89155
42	-9.89349
▁전국	-9.8943
▁자치	-9.89515
▁발생	-9.89526
했다고	-9.89542
이야	-9.89669
29	-9.89738
▁사실	-9.89742
▁회사	-9.89748
▁주인공	-9.89838
▁차례	-9.89988
람	-9.89999
▁교회	-9.90063
▁루	-9.90104
ing	-9.90119
▁멤버	-9.90143
▁편	-9.90167
▁유전자	-9.90228
–	-9.90245
▁전략	-9.90293
서는	-9.90312
▁속도	-9.90539
▁소설	-9.9054
-0019	-9.90545
냐	-9.9057
▁39	-9.90576
▁맡았	-9.90662
▁추정	-9.90728
▁유대인	-9.90765
▁세종	-9.90785
▁비판	-9.90792
인의	-9.908
▁전주	-9.90812
▁내용	-9.90814
▁통치	-9.90827
▁바로	-9.90862
층	-9.90868
▁한반도	-9.9088
▁팀의	-9.90883
▁비해	-9.90924
▁계획	-9.90934
▁어린	-9.90944
앙	-9.9097
▁하며	-9.91017
▁엘	-9.91071
z	-9.91128
▁북부	-9.91154
든	-9.91185
▁페리에	-9.91191
턴	-9.9122
룡	-9.91227
▁특징	-9.91244
し	-9.91262
古	-9.91275
▁블랙	-9.91276
떨	-9.91276
宗	-9.91279
王	-9.91279
▁"24"}]}	-9.91279
▁"35"}]}	-9.91279
▁Español	-9.91279
▁인스타그램	-9.91279
巖	-9.91279
젠	-9.91279
▁불구하고	-9.9128
果	-9.9128
▁"31"}]}	-9.9128
▁웹사이트	-9.9128
▁"18"}]}	-9.9128
▁[10]	-9.9128
▁홍콩	-9.9128
▁식별자를	-9.91281
▁포맷	-9.91281
▁디젤	-9.91282
▁계절편	-9.91282
▁완전히	-9.91283
▁알려져	-9.91284
▁파울	-9.91285
▁생긴	-9.91285
므로	-9.91288
▁자동차	-9.91289
▁공채	-9.91291
▁발달	-9.91292
Inst	-9.91293
▁마련	-9.91301
▁해병대	-9.91304
▁구성되어	-9.91308
▁결정전	-9.91326
▁SK	-9.9133
▁국적	-9.91338
▁사이토	-9.91338
▁강원	-9.91342
▁아직	-9.91344
▁낮은	-9.91353
▁북구	-9.91355
▁않았고	-9.91362
▁동생	-9.91366
였고	-9.91372
▁왜	-9.91373
▁CD	-9.91376
▁월드	-9.91381
▁MTV	-9.91385
▁신설	-9.91391
▁가능한	-9.91398
▁득점	-9.91416
▁1900	-9.91426
▁참여한	-9.91439
▁본명	-9.91443
▁동경	-9.91448
▁매주	-9.9146
▁못했다	-9.91464
▁되면	-9.91465
▁최초로	-9.91466
▁tvN	-9.91472
▁지주연	-9.91472
▁후쿠시마	-9.91473
▁업무	-9.9148
▁용인	-9.91493
▁모습을	-9.91501
▁뭐라고	-9.91503
▁육상	-9.91513
▁나오는	-9.91537
▁46	-9.91543
개팀	-9.91548
▁이것은	-9.9156
▁전주리	-9.91567
▁도전	-9.91585
▁사이에	-9.91601
▁대해서는	-9.91603
▁사람들이	-9.91655
▁넘	-9.91661
▁캐	-9.91666
▁대부분의	-9.91689
▁어린이	-9.91738
tab	-9.91755
▁팝	-9.91804
▁계약을	-9.91811
▁명칭	-9.91843
▁단체	-9.91847
▁조정	-9.91855
▁인물은	-9.9186
되었고	-9.91864
▁발전	-9.91887
▁달라	-9.91984
▁La	-9.92008
▁주장을	-9.92025
▁판단	-9.92031
▁석	-9.92051
▁앤	-9.92057
▁뿐	-9.92069
▁못한	-9.92131
▁곧	-9.92144
▁#	-9.92146
950	-9.9215
▁러시아	-9.9215
▁표준	-9.92159
▁적은	-9.9223
▁어디에서	-9.92235
▁대수	-9.9224
▁1000	-9.92257
▁보아	-9.92259
▁신인	-9.92365
▁국민	-9.92497
▁선수는	-9.92716
▁우승을	-9.92742
▁관리	-9.92781
피어	-9.92804
장의	-9.92855
월부터	-9.92894
▁이들은	-9.92941
▁정신	-9.92988
▁I	-9.93011
-0001	-9.93038
-3	-9.9309
▁보이는	-9.93136
▁눈	-9.93179
▁개선	-9.93183
▁사건의	-9.93295
▁문자	-9.933
Y	-9.9336
▁mm	-9.93399
▁67	-9.93556
ex	-9.93617
▁사라	-9.93741
시아	-9.93898
1938	-9.93998
▁되었고	-9.9423
-001	-9.94284
▁갈	-9.9437
》(	-9.94436
▁몽	-9.94608
▁영화에	-9.94701
▁죽	-9.9499
간의	-9.95103
나는	-9.95113
06	-9.95187
화를	-9.95206
48	-9.95321
▁퇴	-9.95442
,000	-9.95478
▁행동	-9.95697
레스	-9.95714
▁전남	-9.9576
▁팀이	-9.96331
지원	-9.96632
▁하가	-9.96758
83	-9.97053
▁막	-9.97083
▁길이	-9.97188
▁암	-9.97341
2",	-9.97557
▁기본	-9.97736
▁성적	-9.97857
64	-9.97887
학교	-9.98256
념	-9.98297
▁태	-9.98352
▁--	-9.98415
▁지정한	-9.98511
▁(5	-9.98755
99	-9.98791
▁참여	-9.98812
▁원인	-9.98845
▁배우의	-9.98864
ま	-9.98955
치는	-9.98956
▁당시의	-9.98956
▁것에	-9.99776
이라	-9.99849
▁마을	-9.9986
▁히	-10.0009
벌	-10.0028
머	-10.0029
패	-10.0037
관이	-10.0049
파크	-10.0057
충	-10.006
72	-10.0062
37	-10.0063
침	-10.0067
빌	-10.0068
탈	-10.0073
섬	-10.0094
쇼	-10.0095
The	-10.0095
홍	-10.0097
엔터테인먼트	-10.0101
▁건물	-10.0121
받은	-10.0122
▁때문이	-10.0136
자가	-10.0158
▁선언	-10.0187
▁장관	-10.019
▁끝	-10.0192
▁디스크	-10.0202
은행	-10.021
▁가문	-10.0214
▁육군	-10.0228
R	-10.0233
▁영향	-10.0246
▁촬영	-10.0247
▁복	-10.0247
▁취	-10.0248
▁승점	-10.026
▁골든차일드	-10.0267
▁참가	-10.0267
▁김일성	-10.0268
▁사업	-10.027
▁서비스	-10.0271
런	-10.0278
▁없어	-10.0305
시켰다	-10.0307
관계	-10.0308
82	-10.0309
▁경험	-10.0315
으	-10.0315
▁빙하	-10.0324
인지	-10.0329
▁없음	-10.0331
▁총선	-10.034
-0009	-10.0342
▁휴대폰결제	-10.0343
▁날짜	-10.0346
▁보이	-10.0346
▁뛰어	-10.0347
힌	-10.0347
92	-10.0348
▁밤	-10.0348
킨	-10.0354
빙	-10.0354
▁충돌	-10.0355
▁야구	-10.0356
차전	-10.0356
▁전체	-10.0356
▁플레이	-10.0359
▁에너지	-10.0359
▁프로젝트	-10.0359
으면	-10.0363
▁좋아	-10.0369
▁중심	-10.0369
▁워너	-10.0373
쳐	-10.0373
초등학교	-10.0375
삼거리	-10.0375
▁확인	-10.0377
▁신분	-10.0377
셔	-10.0378
安	-10.0378
옴	-10.0378
下	-10.0378
혈	-10.0378
푼	-10.0378
*	-10.0378
▁Deutsch	-10.0378
▁Français	-10.0378
▁JTBC	-10.0378
▁겨울	-10.0378
▁구스타브	-10.0378
▁기흥구	-10.0378
▁내셔널	-10.0378
▁뮌헨	-10.0378
▁바르셀로나	-10.0378
▁박근혜	-10.0378
▁스코틀랜드	-10.0378
▁스튜디오	-10.0378
▁없었다	-10.0378
▁중화민국	-10.0378
▁프로그래밍	-10.0378
▁한국방송공사	-10.0378
▁호텔	-10.0378
西	-10.0378
▁"19"}]}	-10.0378
▁"23"}]}	-10.0378
▁불렀	-10.0378
▁일어난	-10.0378
・	-10.0378
▁더불어	-10.0378
▁맨체스터	-10.0378
▁중계소	-10.0378
▁"27"}]}	-10.0378
▁빌보드	-10.0378
に	-10.0378
▁찰스	-10.0378
▁제임스	-10.0378
▁다카마쓰	-10.0378
▁Live	-10.0378
▁실험	-10.0378
新	-10.0378
▁받을	-10.0379
▁아프리카	-10.0379
▁특정	-10.0379
▁언급	-10.0379
▁당나라	-10.0379
▁따르면	-10.0379
▁접근	-10.038
▁스카이	-10.038
▁폐국	-10.038
▁만약	-10.0381
▁0.1	-10.0382
▁배출	-10.0382
▁대표적인	-10.0382
▁존재하지	-10.0382
▁파워	-10.0383
▁사실상	-10.0383
▁SF	-10.0383
▁사용되는	-10.0384
▁시작한	-10.0384
▁통산	-10.0384
ml	-10.0384
▁출장	-10.0387
▁쉽게	-10.0387
▁기억	-10.0388
▁작은	-10.0388
▁통하여	-10.0388
▁방영된	-10.0388
▁관할	-10.0389
▁증	-10.0391
▁1978	-10.0391
▁돈을	-10.0392
▁가져	-10.0393
단편	-10.0393
▁기수	-10.0393
▁군수	-10.0394
▁전국동시지방선거에서	-10.0394
▁혹은	-10.0394
▁포항	-10.0395
▁1908	-10.0396
▁의미	-10.0397
▁일정	-10.0399
▁청소년	-10.0399
▁포트	-10.04
▁퍼펄즈	-10.04
▁스페셜	-10.04
▁괴	-10.04
▁스타디움	-10.04
▁1964	-10.0402
▁항공사	-10.0402
▁코어	-10.0402
▁1.1	-10.0404
▁있었을까	-10.0405
▁켄	-10.0406
▁전까지	-10.0406
▁연도별	-10.0408
▁회장	-10.0408
▁산업	-10.0409
▁요한	-10.0409
bi	-10.0411
▁그녀는	-10.0413
89	-10.0414
▁더욱	-10.0416
▁조시	-10.0418
중학교	-10.0419
▁600	-10.0419
▁제외	-10.0419
▁1971	-10.0422
운수	-10.0423
지의	-10.0423
▁방송된	-10.0424
▁지금까지	-10.0427
▁어머니는	-10.0428
▁과정에서	-10.043
▁끝에	-10.0432
▁느	-10.0434
▁대략	-10.0435
▁그린	-10.0437
▁프리드먼	-10.0438
▁예능	-10.0441
▁준비	-10.0446
▁후반	-10.0448
▁중종	-10.0449
▁미국에서는	-10.0463
▁남부	-10.0463
▁돌을	-10.0466
▁성적은	-10.0466
▁벨	-10.0468
▁내야	-10.0469
▁장사	-10.0469
만원	-10.0475
▁보도	-10.0476
▁인용	-10.0487
▁마리아	-10.0493
▁것과	-10.0496
▁폐	-10.0496
▁방법은	-10.0497
▁육	-10.0499
▁그날	-10.0505
▁하지	-10.0511
▁부제	-10.0514
▁60	-10.0515
조의	-10.0515
▁채널	-10.0516
▁가나	-10.0525
▁수용	-10.0525
▁선수가	-10.0529
▁청주	-10.053
인들은	-10.0551
▁II	-10.0554
▁담	-10.0554
읍	-10.0558
스의	-10.0562
▁시작된	-10.0563
▁인물의	-10.0567
▁걸	-10.0571
▁300	-10.0574
하자	-10.0576
▁이상의	-10.0577
▁경기를	-10.058
▁트랙	-10.0584
▁등과	-10.0588
▁푸	-10.0595
줄	-10.0603
▁e	-10.0628
▁말은	-10.0632
38	-10.0641
단을	-10.0644
▁문학	-10.0654
▁직	-10.0658
▁사상	-10.067
▁세이	-10.0675
▁말을	-10.0685
성동	-10.0691
▁HD	-10.0698
9",	-10.0703
1939	-10.0706
▁내지	-10.0707
▁하였	-10.0712
▁최고의	-10.0728
▁49	-10.0739
or	-10.077
row	-10.0773
누	-10.0777
었는가	-10.0781
▁주민	-10.0791
▁74	-10.0814
ind	-10.0827
너	-10.0844
모토	-10.0848
.5%	-10.0861
대회	-10.0882
re	-10.0886
▁감독의	-10.0887
▁수상한	-10.0901
명으로	-10.091
▁제국	-10.0917
▁범	-10.0921
▁62	-10.0935
▁가는	-10.0947
3",	-10.0949
▁못	-10.095
수로	-10.0962
름	-10.0968
as	-10.0996
▁실행	-10.1007
▁강의	-10.1018
▁언	-10.1036
▁m	-10.1044
46	-10.1047
▁때는	-10.1048
▁형제	-10.1078
번째로	-10.1088
▁적용	-10.11
▁꽃	-10.1104
▁지정	-10.1124
▁테	-10.1124
69	-10.1175
역이	-10.1176
▁생활	-10.1182
되었으며	-10.1194
▁의사	-10.1208
▁건	-10.1241
▁영화는	-10.1256
▁44	-10.1263
▁출시	-10.1264
▁악	-10.1274
22	-10.1275
▁퍼	-10.1277
▁바이	-10.13
▁번호	-10.1303
▁벌	-10.1308
운동에	-10.1325
감	-10.133
문화	-10.1333
▁의회	-10.1335
▁(1	-10.1339
/>	-10.1343
리에	-10.1344
황	-10.1356
성의	-10.1359
'(	-10.1359
닝	-10.1362
▁개량	-10.1387
▁설정	-10.1393
결	-10.1409
백	-10.1424
궁	-10.1426
얼	-10.1432
▁높	-10.1445
▁80	-10.1445
칭	-10.1448
▁형식	-10.1456
빈	-10.1465
-0024	-10.1469
긴	-10.1476
돈	-10.1478
다고	-10.148
플	-10.1484
▁인기	-10.1487
싱	-10.1493
라운드	-10.1496
킹	-10.1497
맨	-10.1498
콘	-10.1506
퍼	-10.151
뉴	-10.1512
돼	-10.1515
트랙	-10.1517
▁제기	-10.1524
▁주의	-10.1526
[	-10.1531
▁마음	-10.1537
I	-10.1546
시켜	-10.1572
쳤다	-10.1586
no	-10.1593
▁자라	-10.1594
▁에도	-10.1594
하려	-10.1608
겐	-10.1609
욱	-10.1616
▁어머니	-10.1618
▁아래	-10.1618
투수	-10.1638
▁스스로	-10.1647
▁금속	-10.1656
사와	-10.1682
▁소련	-10.1687
▁원래	-10.1693
>》	-10.1696
른	-10.1697
▁마이	-10.1706
▁제주	-10.1712
▁고향	-10.1717
36	-10.1722
▁설립	-10.1724
▁발음	-10.1725
섭	-10.1733
▁일어나	-10.1734
▁이동	-10.1738
▁숫자	-10.1739
▁며칠	-10.1752
맛	-10.1755
학과	-10.1757
▁탄핵	-10.176
님	-10.1762
▁런던	-10.1764
▁동물	-10.1765
▁아메리카	-10.1768
-0034	-10.1768
▁원소	-10.1769
▁오후	-10.1769
시대	-10.1771
▁명예	-10.1774
년을	-10.1776
▁환	-10.1782
-0036	-10.1784
▁김현	-10.1785
▁사례	-10.1786
▁실제	-10.1787
▁있어서	-10.1789
4",	-10.1791
▁방면	-10.1791
▁임기	-10.1793
▁연방	-10.1794
▁너무	-10.1797
틀	-10.1799
▁린	-10.1799
▁곳에	-10.1799
▁강진군	-10.1801
덴	-10.1801
사령부	-10.1803
▁고등	-10.1805
됨	-10.1806
心	-10.1806
坪	-10.1806
ク	-10.1806
▁청춘	-10.1806
ミ	-10.1806
解	-10.1806
▁"34"}]}	-10.1807
▁"41"}]}	-10.1807
▁국정감사	-10.1807
▁그랑프리	-10.1807
▁복면가왕	-10.1807
▁얻은	-10.1807
▁옮겼	-10.1807
▁울주군	-10.1807
▁윌리엄	-10.1807
▁챔피언스리그	-10.1807
▁캘리포니아	-10.1807
▁필리핀	-10.1807
川	-10.1807
▁겪었	-10.1807
▁기반으로	-10.1807
▁떨어진	-10.1807
▁아름다운	-10.1807
長	-10.1807
▁"13"}]}	-10.1807
▁"17"}]}	-10.1807
▁[19]	-10.1807
▁가까운	-10.1807
▁다저스	-10.1807
▁떨어져	-10.1807
▁섭취	-10.1807
事	-10.1807
▁미나미	-10.1807
帝	-10.1807
海	-10.1807
▁니퍼트	-10.1807
▁스위스	-10.1807
▁"16"}]}	-10.1807
▁주파수	-10.1807
▁초이스	-10.1807
▁EBS	-10.1807
▁요크셔	-10.1807
▁신한국당	-10.1807
▁먼저	-10.1807
校	-10.1807
▁푸른	-10.1807
▁회복	-10.1807
▁사이클	-10.1807
▁다녔	-10.1807
▁메이저	-10.1807
▁레알	-10.1807
마무리	-10.1807
▁이현승	-10.1808
村	-10.1808
6",	-10.1808
▁구로다	-10.1808
▁다마소	-10.1808
▁[17]	-10.1808
(91)	-10.1808
▁열매	-10.1809
패션왕	-10.1809
▁탄생	-10.181
▁개최된	-10.1811
▁약속	-10.1812
▁객사는	-10.1812
▁시간표	-10.1813
▁획득한	-10.1813
▁곳에서	-10.1814
▁978-89-252-7	-10.1814
▁통제	-10.1814
▁출시된	-10.1814
▁수지구	-10.1814
▁아문센은	-10.1815
▁민선	-10.1815
▁필요한	-10.1817
▁읽	-10.1817
▁방법으로	-10.1817
▁가능성이	-10.1818
very	-10.1818
▁오브	-10.1819
-0018	-10.182
▁소재지	-10.182
▁무엇이라	-10.1821
▁주변	-10.1822
▁고양	-10.1823
▁반란을	-10.1823
▁못하고	-10.1823
▁형식으로	-10.1824
정보	-10.1824
▁상행	-10.1824
▁도움을	-10.1825
SI	-10.1825
▁반면	-10.1826
▁중심으로	-10.1826
개씩	-10.1827
▁연소	-10.1827
▁0.1%	-10.1828
▁장르	-10.1828
▁1959	-10.1828
col	-10.1829
▁구간	-10.183
▁즉시	-10.183
▁기준으로	-10.1831
▁AGB	-10.1832
▁트위터	-10.1832
▁해피니스	-10.1832
▁홍주찬	-10.1832
▁그남자	-10.1832
▁주니어	-10.1832
▁캐나다	-10.1832
▁1973	-10.1832
▁경쟁	-10.1832
▁의견이	-10.1833
▁사용하고	-10.1834
▁입법	-10.1834
▁참가자	-10.1835
▁루이스	-10.1836
▁홈런	-10.1837
▁신정	-10.1838
▁사람들은	-10.184
▁연기한	-10.184
▁귀	-10.184
▁발표한	-10.1844
▁이유가	-10.1845
▁이용해	-10.1845
>《	-10.1846
통신	-10.1846
▁군주	-10.1847
▁방송인	-10.1847
▁1970	-10.1847
▁우주	-10.1848
▁승점은	-10.1848
▁행사	-10.1848
▁호주	-10.1849
▁홈런을	-10.1849
▁연주	-10.185
▁사망했	-10.185
▁원인은	-10.1851
▁받아	-10.1854
▁대비	-10.1857
공업	-10.1857
▁무엇으로	-10.1857
▁내용을	-10.186
▁불안	-10.1865
들과	-10.1866
▁예비	-10.187
▁승자	-10.1872
▁[17	-10.1874
▁정당은	-10.1875
▁시작한다	-10.1876
▁미디어	-10.1876
▁탑	-10.1876
▁일하는	-10.1877
▁코리아	-10.1878
▁자료	-10.188
▁이루어졌	-10.1881
▁대하여	-10.1882
▁따	-10.1886
▁지도	-10.1889
▁백제	-10.1891
▁여신	-10.1891
▁새로	-10.1892
▁슬	-10.1894
▁앞에	-10.1901
▁박사	-10.1905
▁무대에	-10.1906
▁파리	-10.1906
▁극장	-10.1906
▁전자	-10.1908
▁몇년도에	-10.1914
▁일대	-10.1915
▁신화는	-10.192
▁하나로	-10.1921
▁건설	-10.1922
▁곡을	-10.1923
▁[13	-10.1925
▁도서관은	-10.1925
▁만나	-10.1926
▁서부	-10.1934
▁경우도	-10.1934
▁서기	-10.1935
▁노동	-10.194
▁출연자	-10.194
▁예선에서	-10.1943
▁있다면	-10.1943
▁기록은	-10.1948
▁여명의	-10.195
▁근	-10.1954
▁기존의	-10.1955
54	-10.1963
되었는데	-10.1966
▁보물	-10.197
▁과의	-10.1972
7.2	-10.1973
▁결과를	-10.1975
▁선수권	-10.1976
▁만들어졌	-10.1985
유키	-10.1993
▁일본어	-10.1994
▁역위	-10.1994
▁칼	-10.1994
▁130	-10.2001
▁설이	-10.2005
▁일상	-10.2006
▁나서	-10.2007
▁신화의	-10.2008
▁아스	-10.2008
▁잔	-10.2013
▁해야	-10.2014
▁시작했다	-10.2015
이치	-10.202
▁75	-10.202
▁가지는	-10.202
_(	-10.2031
▁라인	-10.204
▁사수	-10.2044
▁좌	-10.2047
▁유로	-10.2049
▁질	-10.2049
▁이들을	-10.2052
▁술	-10.2057
▁자신	-10.2062
)<	-10.2069
▁주고	-10.2074
▁사이의	-10.2087
03	-10.2088
당의	-10.2089
▁년도인	-10.2105
▁돼	-10.2107
-0015	-10.2127
▁선수의	-10.2127
is	-10.2129
▁버스	-10.2136
군의	-10.2137
▁설명	-10.2145
▁규칙	-10.2145
▁이후로	-10.2147
▁예수	-10.2151
▁글	-10.2163
st	-10.2168
▁골	-10.2176
▁효과	-10.2179
▁라이	-10.2215
▁미국에서	-10.2226
5%	-10.2228
료	-10.2229
▁되면서	-10.2237
▁몬	-10.2245
▁옥	-10.2246
▁v	-10.225
▁수소	-10.2259
▁시대에	-10.2272
▁흥	-10.2282
진화	-10.2289
▁필	-10.2293
▁니	-10.2299
오는	-10.2308
43	-10.2324
▁록	-10.234
됐	-10.2342
▁때에	-10.2369
하거나	-10.2382
▁중국의	-10.2396
니까	-10.24
원의	-10.2421
었나	-10.2427
▁뭐가	-10.243
▁신라	-10.2435
▁시장	-10.2444
um	-10.245
▁등에	-10.2454
▁남편	-10.2457
있을까	-10.2458
▁In	-10.2458
르는	-10.2472
▁촌	-10.2478
▁마사	-10.2485
▁(2	-10.249
▁배치	-10.2491
▁k	-10.2496
300	-10.2497
▁죽었	-10.2506
▁클	-10.2512
▁지지	-10.2517
6]	-10.252
로드	-10.2524
화가	-10.2527
시키는	-10.2528
▁대가	-10.2529
el	-10.2553
▁되지	-10.2557
▁54	-10.2559
▁출전	-10.2562
ー	-10.2573
▁안의	-10.2589
▁유진는	-10.2589
년경	-10.2603
▁아니	-10.2604
▁되고	-10.2606
▁배경	-10.2612
씨가	-10.2617
▁국가의	-10.2629
인데	-10.2632
ン	-10.2637
▁해석	-10.2642
▁앨범의	-10.2644
인원	-10.2677
▁역사적	-10.2684
▁목적	-10.2702
in	-10.2715
▁민족	-10.2738
명이	-10.2744
▁[4	-10.2746
스카	-10.2767
▁명의	-10.277
▁소년	-10.2787
번의	-10.2798
▁크	-10.2819
▁55	-10.2828
2%	-10.2845
▁했던	-10.2847
드라	-10.2869
량이	-10.2877
▁So	-10.2881
▁(17	-10.2904
려고	-10.2944
과의	-10.2956
▁타카	-10.2969
-0032	-10.2975
증	-10.2976
▁니시	-10.2976
▁중단	-10.298
것은	-10.3008
▁이승	-10.3029
▁다카	-10.3033
▁제한	-10.3034
▁일원	-10.3044
>4	-10.3048
▁전역	-10.3062
▁이적	-10.3067
술	-10.3069
벨	-10.3075
-12	-10.308
나라	-10.3096
리스	-10.3097
▁공간	-10.31
0%	-10.3101
우스	-10.3101
-0030	-10.3114
눈	-10.3118
▁데이	-10.3119
부로	-10.3124
▁가능	-10.3134
푸	-10.3134
mm	-10.3139
さ	-10.3146
터널	-10.3147
휴	-10.3147
되며	-10.3151
끼	-10.3154
작전	-10.316
기술	-10.3162
액	-10.3162
엽	-10.3163
걸	-10.3166
탕	-10.3168
낸	-10.3171
귀	-10.3175
좌	-10.3176
텐	-10.3177
か	-10.3177
▁교육	-10.3177
교육	-10.3179
허	-10.319
자와	-10.319
J	-10.319
Re	-10.3193
알	-10.3194
중앙	-10.3197
→	-10.3198
▁도로	-10.3207
▁Min	-10.3215
미국	-10.3228
하지만	-10.3246
베이	-10.325
대학	-10.325
호에	-10.3263
▁궁	-10.3271
(<	-10.3275
▁들어가	-10.3277
물을	-10.3302
▁성립	-10.3306
자들은	-10.3321
틴	-10.3323
▁코스프레	-10.3335
▁게임판	-10.3355
▁의원	-10.3358
,500	-10.3358
▁최초	-10.3361
▁전동차	-10.3362
▁각본	-10.337
▁달러	-10.3371
2003	-10.3379
▁점수	-10.3395
▁단어	-10.3397
니아	-10.3397
▁표기	-10.34
▁이루어져	-10.3402
▁바꾸	-10.3402
▁자체	-10.3413
▁횟수	-10.3415
▁지냈	-10.3416
▁일어났	-10.3417
▁깊이	-10.3417
~15	-10.3419
▁고등학교	-10.342
▁활약	-10.3422
ag	-10.3423
사의	-10.3424
▁토큰	-10.3427
혁	-10.3427
▁사퇴	-10.3435
▁원주	-10.3436
로는	-10.3439
▁안양	-10.3441
▁지방선거	-10.3443
▁무엇이었	-10.3444
씩	-10.3447
회차	-10.3447
휘	-10.3451
▁트리	-10.3451
▁소프트웨어	-10.3457
▁높이	-10.346
-0031	-10.346
▁확장	-10.3461
닉	-10.3462
▁미라	-10.3463
▁보호	-10.3464
련	-10.3464
▁파괴	-10.3465
▁거쳐	-10.3466
흐	-10.3468
명은	-10.3469
융	-10.3469
▁진압	-10.3469
▁어땠	-10.3469
준다	-10.3469
잉	-10.3471
▁편성	-10.3472
明	-10.3472
な	-10.3473
み	-10.3473
-0011	-10.3473
ア	-10.3473
丁	-10.3473
▁최소	-10.3473
』	-10.3473
文	-10.3473
小	-10.3473
承	-10.3473
縣	-10.3473
門	-10.3473
▁Bahasa	-10.3473
▁DNA	-10.3473
▁Italiano	-10.3473
▁OCN	-10.3473
▁OST	-10.3473
▁فارسی	-10.3473
▁곳을	-10.3473
▁곳이	-10.3473
▁그래미상	-10.3473
▁나미비아	-10.3473
▁나타난	-10.3473
▁네트워크	-10.3473
▁더불어민주당	-10.3473
▁로스앤젤레스	-10.3473
▁무소속	-10.3473
▁미니홈피	-10.3473
▁바이에른	-10.3473
▁보컬	-10.3473
▁신세계백화점	-10.3473
▁싸이월드	-10.3473
▁앨런	-10.3473
▁얻었	-10.3473
▁오스트리아	-10.3473
▁오히려	-10.3473
▁젊은	-10.3473
▁쿵야	-10.3473
▁탤런트	-10.3473
▁홋카이도	-10.3473
き	-10.3473
中	-10.3473
史	-10.3473
橋	-10.3473
花	-10.3473
馬	-10.3473
줘	-10.3473
▁동해상으로	-10.3473
こ	-10.3473
だ	-10.3473
湖	-10.3473
田	-10.3473
萬	-10.3473
道	-10.3473
넬	-10.3473
▁개방형	-10.3473
▁미우라	-10.3473
▁아사히	-10.3473
北	-10.3473
ウ	-10.3473
▁핀란드	-10.3473
▁[11]	-10.3473
▁멀리	-10.3473
▁"9"}]}	-10.3473
▁광천터미널	-10.3473
郡	-10.3473
▁빠른	-10.3473
▁방향으로	-10.3473
’·‘	-10.3473
丁氏	-10.3473
▁한국외국어대학교	-10.3473
▁러브	-10.3473
▁라켓	-10.3474
▁화순교통	-10.3474
package	-10.3474
▁걸쳐	-10.3474
▁춘천	-10.3474
▁상황에서	-10.3474
▁JR	-10.3474
▁몽골	-10.3474
▁철	-10.3474
▁58	-10.3474
▁해솔	-10.3474
▁다큐	-10.3475
▁엄마	-10.3475
▁재판	-10.3475
▁타격	-10.3475
▁연극영화과	-10.3475
▁직후	-10.3475
▁김영구	-10.3475
▁체포	-10.3475
▁대륙	-10.3476
▁중앙대학교	-10.3476
▁메달	-10.3476
▁연결	-10.3476
>2</	-10.3476
\"	-10.3476
▁동해	-10.3477
▁서술	-10.3477
▁오른	-10.3477
▁자녀	-10.3477
▁히사시	-10.3477
▁DK	-10.3477
▁액체	-10.3477
▁키즈	-10.3478
▁신체의	-10.3478
▁무엇이었을까	-10.3478
▁데뷔하였고	-10.3479
번길	-10.3479
▁독립운동가	-10.3479
▁집권	-10.3479
▁그림	-10.3479
▁아침	-10.3479
1981	-10.348
▁NC	-10.348
▁연애	-10.348
▁화순	-10.3481
▁화물	-10.3482
▁보병	-10.3482
▁내각	-10.3482
▁설립된	-10.3482
▁인생	-10.3483
▁TS	-10.3483
▁인수	-10.3484
▁일반적으로	-10.3485
▁처	-10.3487
▁하행	-10.3487
▁전반	-10.3487
,015	-10.3487
▁부천	-10.3488
▁구성하는	-10.3488
▁인류	-10.3488
▁이것이	-10.3489
▁있으면	-10.3489
▁구역은	-10.3489
▁줄거리는	-10.3489
▁배경으로	-10.3491
▁유명한	-10.3492
▁헌법	-10.3493
▁동계	-10.3494
구조	-10.3494
▁같다	-10.3496
▁북위	-10.3496
바시	-10.3496
▁영향으로	-10.3497
▁사용된다	-10.3497
▁목적으로	-10.3498
+10	-10.3499
▁유명	-10.3499
93",	-10.3499
▁발매된	-10.3499
▁2.2	-10.35
▁전승	-10.35
▁5000	-10.3502
▁뮤지컬	-10.3503
▁0.3%	-10.3504
▁트로피	-10.3504
▁곽	-10.3504
▁↔	-10.3504
▁랭크	-10.3504
▁베트남	-10.3504
▁콘크리트	-10.3504
▁윤성호	-10.3504
▁상황은	-10.3504
▁고구려	-10.3504
▁뮤직팩토리	-10.3504
▁그리	-10.3504
▁취임한	-10.3505
▁발표했다	-10.3506
▁골프	-10.3506
▁있으나	-10.3506
▁겐타로	-10.3507
제는	-10.3507
▁쓰인	-10.3507
▁있도록	-10.3508
▁영업	-10.3508
▁1.2	-10.351
타니	-10.3511
▁통화	-10.3511
▁미스터리	-10.3512
-0010	-10.3512
▁출마한	-10.3515
▁의하면	-10.3517
하이	-10.3518
▁쓰고	-10.3519
▁무엇이라고	-10.3519
▁하다가	-10.3519
▁병사	-10.352
▁규모의	-10.352
▁그들의	-10.3521
▁비상	-10.3521
▁종류는	-10.3522
▁다리의	-10.3523
▁그리스도	-10.3524
▁막부	-10.3526
▁졸업한	-10.3526
▁귀도	-10.3527
▁것이었다	-10.3528
GC	-10.3529
▁깊이가	-10.3529
씨의	-10.3529
-0005	-10.353
▁횟수는	-10.3532
!》	-10.3535
▁원인을	-10.3535
▁경력은	-10.3536
▁아니다	-10.3539
▁사실을	-10.354
▁진행자	-10.3542
▁절대	-10.3543
▁예우	-10.3543
▁프리	-10.3545
▁없다고	-10.3546
▁지위	-10.3547
▁타고	-10.3549
▁분화	-10.3554
▁부족	-10.3556
▁멕시코	-10.3557
▁Love	-10.3557
▁고속도로	-10.3557
▁컴즈	-10.3557
▁얼론	-10.3558
▁에코	-10.3558
▁네버	-10.3559
▁프로듀서	-10.3559
▁일본국	-10.356
▁이복	-10.3561
▁신앙	-10.3563
ua	-10.3566
▁직업은	-10.3567
직을	-10.3573
▁사이에서	-10.3574
▁정도로	-10.3574
▁오지	-10.3577
▁서구	-10.3581
▁데뷔한	-10.3581
시키	-10.3582
▁조사	-10.3582
▁사건이	-10.3582
▁아키	-10.3582
세요	-10.3584
▁무게	-10.3584
▁구단	-10.3588
▁입자	-10.3593
▁기회	-10.3593
▁이번	-10.3595
경기	-10.3595
▁관계가	-10.3599
▁지형	-10.3599
▁예술	-10.3601
▁레이다	-10.3602
미안	-10.3603
▁위해서는	-10.3604
▁프레	-10.3606
▁분자	-10.3607
▁마르	-10.3609
▁구성된	-10.3611
▁태평양	-10.3611
▁수학	-10.3612
▁교육구	-10.3617
▁소장	-10.3617
▁메이	-10.362
▁운동이	-10.362
▁하기	-10.3624
이고	-10.3626
▁생애는	-10.3629
▁시기는	-10.363
▁단위	-10.363
▁들은	-10.3634
▁여부	-10.3636
선이	-10.3636
▁800	-10.3638
▁64	-10.3646
▁원제	-10.3647
▁지적이	-10.3657
▁지원에	-10.366
0,000	-10.3664
▁의식	-10.3665
▁카를	-10.3665
▁둔	-10.3666
▁오스트레일리아의	-10.3669
▁단계	-10.367
▁머리	-10.3671
호대	-10.3671
▁연장	-10.3672
▁코드	-10.3674
87",	-10.3676
▁전쟁을	-10.3678
▁창원	-10.3678
▁뒤로	-10.3679
V	-10.368
▁누구였	-10.3692
▁기지	-10.3695
동이	-10.3695
▁나가	-10.3697
▁전시	-10.3704
31",	-10.3706
▁소비	-10.3707
▁존재	-10.3715
전의	-10.3718
▁감독은	-10.3719
▁종합	-10.3723
▁광장	-10.3724
체의	-10.3725
▁사랑의	-10.3727
케	-10.3734
▁미터	-10.3736
▁공을	-10.3739
▁유리	-10.374
이란	-10.3744
▁작품은	-10.3745
세를	-10.3746
▁영화제	-10.3747
▁만에	-10.3749
▁시즌에	-10.3757
▁기사	-10.3757
▁완	-10.3759
▁헤	-10.3763
▁인간의	-10.3768
3%	-10.3771
▁か	-10.3778
▁텐	-10.3778
▁열었	-10.3784
▁사람을	-10.3785
투자	-10.3786
▁지역에	-10.3788
▁음악가	-10.3797
▁흡수	-10.3798
▁달성	-10.3804
▁정부는	-10.3811
하였	-10.3812
▁몇명인가	-10.3815
▁시대의	-10.3821
▁게임의	-10.3824
여객	-10.383
▁항	-10.3834
80	-10.3836
▁되었으며	-10.3841
▁실시	-10.3848
▁베르	-10.385
95",	-10.3853
▁제일	-10.3863
▁효	-10.3864
▁고리	-10.3867
▁전환	-10.387
▁읍	-10.387
ook	-10.3872
▁왕의	-10.3874
▁총리	-10.388
1967	-10.3881
▁매년	-10.3893
▁의종	-10.3899
▁56	-10.3901
52	-10.3907
하고자	-10.391
▁점을	-10.3915
으로써	-10.3926
▁과장	-10.3933
▁경기가	-10.3936
▁칭	-10.3944
월까지	-10.3951
▁있지	-10.3951
▁양자	-10.3959
▁인지	-10.3962
▁후보는	-10.397
자리	-10.3976
조선	-10.3982
8%	-10.3986
▁연안	-10.399
▁중간	-10.3994
까지의	-10.4002
▁청계	-10.4021
기의	-10.4026
일까지	-10.4031
공주	-10.4034
점으로	-10.4035
▁이해	-10.4042
학동	-10.4055
▁인기가	-10.4057
▁400	-10.4066
▁장교	-10.4073
1.4	-10.4085
화의	-10.4085
▁입단	-10.4096
200	-10.4103
▁커	-10.4104
▁테마	-10.4106
▁독일의	-10.4108
되기	-10.4128
▁시절에	-10.4131
카이	-10.4136
▁급	-10.414
자인	-10.4155
리오	-10.4162
월에는	-10.4176
라이	-10.4176
▁on	-10.4191
▁망	-10.4199
▁해체	-10.42
▁했으며	-10.4205
▁[5	-10.4231
▁번역	-10.4231
70	-10.4235
학년	-10.4262
회사	-10.4265
1]	-10.4268
▁운	-10.43
▁고전	-10.4303
계를	-10.4307
력이	-10.4308
58",	-10.4312
▁오르	-10.4333
발매일자	-10.4359
▁도착	-10.4373
▁현재의	-10.4385
6)	-10.4387
문동	-10.4402
구의	-10.4431
▁아들이	-10.4431
▁열차	-10.4432
▁보내	-10.4434
▁내려	-10.4435
용이	-10.4458
▁묘사	-10.4472
▁수록	-10.4474
be	-10.4499
역으로	-10.4508
▁실제로	-10.4517
트는	-10.4518
▁인식	-10.456
-0016	-10.4571
▁기구	-10.4572
▁부분	-10.461
장을	-10.4626
▁상을	-10.4642
▁상태	-10.4647
군이	-10.4664
ke	-10.467
▁감옥에	-10.4682
▁이때	-10.4685
베리	-10.4687
▁에이	-10.4689
선교	-10.4691
4%	-10.4699
상인	-10.4705
수의	-10.4712
채	-10.4722
처	-10.4735
▁Da	-10.4736
▁분석	-10.4748
▁희	-10.4759
▁내에서	-10.4763
▁신문	-10.4767
마일	-10.4771
▁플레이어	-10.4795
▁형태	-10.48
▁은하	-10.4803
스와	-10.4817
▁일로	-10.4829
기로	-10.4831
국은	-10.4831
70",	-10.4862
▁야	-10.4863
되던	-10.4866
권을	-10.4898
▁프	-10.4908
롤	-10.4909
▁감사	-10.4916
공사	-10.4916
▁g	-10.4932
ra	-10.4933
막	-10.4939
▁죄	-10.4941
ort	-10.4948
▁북한	-10.4954
▁조건	-10.4973
과정	-10.4987
▁부르	-10.5016
-000	-10.5017
▁표면에	-10.5026
▁로스	-10.5026
▁좋지	-10.5031
▁카드	-10.5034
."	-10.5035
▁학교에	-10.504
축	-10.5048
전쟁	-10.5048
55	-10.5054
회에서	-10.5058
▁하여	-10.5066
▁강화	-10.5071
969	-10.5079
대의	-10.5089
▁78	-10.5094
▁76	-10.5094
갔	-10.5097
했지만	-10.51
et	-10.51
버스	-10.5101
칼	-10.5103
음을	-10.5103
감을	-10.5126
도시	-10.5137
▁250	-10.5138
춘	-10.5143
《	-10.5144
최	-10.5145
공화국	-10.5147
쇠	-10.5148
高	-10.5148
카드	-10.5148
라인	-10.5151
대하드라마	-10.5163
징	-10.5164
측	-10.5167
느	-10.517
농	-10.5174
셀	-10.5178
종합	-10.518
잔	-10.518
▁세이브	-10.518
수록	-10.5182
▁확립	-10.5183
홀	-10.5186
칸	-10.519
손	-10.519
존	-10.5193
죽	-10.5193
음악	-10.5195
▁기후	-10.52
▁중성	-10.5201
3]	-10.5201
갔다	-10.5202
미터	-10.5204
▁선산	-10.5205
▁암호	-10.5209
▁와의	-10.5212
▁종류	-10.5213
전국	-10.5218
우승	-10.5221
케이	-10.5223
▁지명	-10.5226
될까	-10.5227
년도에	-10.5232
시는	-10.5234
2]	-10.5241
4]	-10.5243
후지	-10.525
동부	-10.5255
기준	-10.5255
▁돌아	-10.5258
II	-10.5273
▁브랜드	-10.5275
▁기록했	-10.5276
>20	-10.5279
기업	-10.5286
▁즉위	-10.5288
받	-10.5289
▁행정구역	-10.5292
야마	-10.5296
▁만주	-10.5296
2016	-10.5296
▁그녀	-10.5296
▁근육	-10.5299
었으며	-10.53
▁집단	-10.5308
▁반응	-10.5309
▁화정	-10.5323
▁받는	-10.5324
▁미군	-10.5327
-7	-10.5337
▁이루어	-10.5337
도가	-10.5339
▁타이틀	-10.5352
대표	-10.5353
▁리디아	-10.5355
▁갔다	-10.5359
▁이집트	-10.5362
▁케	-10.5364
▁기계	-10.5364
▁리슬링	-10.5378
점을	-10.5379
▁to	-10.5385
▁싸	-10.5389
근무	-10.5391
▁크로뮴	-10.5392
▁친구	-10.5393
▁작곡	-10.5394
▁투표	-10.5395
-9	-10.5399
▁우크라이나	-10.54
▁레노버	-10.5403
91	-10.5403
000	-10.5411
▁판매	-10.5412
스티	-10.5412
▁국회	-10.5414
▁카프	-10.5415
산리	-10.5416
▁영토	-10.542
▁성격	-10.5422
▁성향	-10.5423
▁자격	-10.5425
▁방식	-10.5427
▁금메달	-10.5429
▁요리토모	-10.5431
▁법칙	-10.5431
▁명이	-10.5433
▁변화	-10.5434
인조	-10.5434
▁생년월일	-10.5436
▁모습	-10.5438
▁올라	-10.5438
▁후계자	-10.5439
▁득표율	-10.5439
▁시상식	-10.544
▁채권	-10.5441
터미널	-10.5441
▁김정	-10.5445
▁전국동시지방선거	-10.5447
▁조별리그	-10.5448
▁상징	-10.5448
▁+1	-10.545
▁사무	-10.5452
▁합격	-10.5453
겨	-10.5455
▁보고서	-10.5455
-0035	-10.5456
▁대해서	-10.5458
▁특집	-10.5459
롭	-10.546
-0033	-10.5463
iv	-10.5463
▁연예	-10.5463
▁해방	-10.5464
▁않아	-10.5465
▁부산광역시	-10.5467
▁일요일	-10.5467
겠	-10.5468
▁동대문	-10.5468
▁생겼	-10.5468
▁봉지	-10.5468
둥	-10.5468
▁포지션	-10.5468
▁출생지	-10.5469
▁등으로	-10.5469
룰	-10.547
딩	-10.5471
羅	-10.5471
잇	-10.5471
光	-10.5473
튼	-10.5473
▁편입	-10.5473
一	-10.5473
▁나쁜	-10.5473
津	-10.5473
同	-10.5473
者	-10.5473
シ	-10.5473
水	-10.5473
첩	-10.5473
▁헝가리	-10.5473
府	-10.5473
正	-10.5473
經	-10.5473
."},	-10.5473
5678901234	-10.5473
»	-10.5473
▁126-3000	-10.5473
▁August	-10.5473
▁Outstanding	-10.5473
▁Polski	-10.5473
▁Português	-10.5473
▁Retrieved	-10.5473
▁TAM	-10.5473
▁Tiếng	-10.5473
▁Việt	-10.5473
▁−2	-10.5473
▁갤런	-10.5473
▁거두었다	-10.5473
▁국가지원지방도	-10.5473
▁궤도	-10.5473
▁나타낼	-10.5473
▁됩니	-10.5473
▁뒷받침	-10.5473
▁드래프트	-10.5473
▁레오폴트는	-10.5473
▁맞아	-10.5473
▁맡아	-10.5473
▁메인보컬	-10.5473
▁몸을	-10.5473
▁베네수엘라	-10.5473
▁비잔티움	-10.5473
▁새롭게	-10.5473
▁소태역	-10.5473
▁아프지마	-10.5473
▁없을	-10.5473
▁엿보	-10.5473
▁오를레앙	-10.5473
▁이듬해	-10.5473
▁이렇게	-10.5473
▁이십곡리	-10.5473
▁적극적인	-10.5473
▁제바스티안	-10.5473
▁좋다	-10.5473
▁증후군	-10.5473
▁칼데라	-10.5473
▁크로아티아	-10.5473
▁패럴림픽	-10.5473
▁페트로스	-10.5473
▁피타고라스	-10.5473
▁하츠네	-10.5473
▁훨씬	-10.5473
▁흔히	-10.5473
▁힘이	-10.5473
★	-10.5473
け	-10.5473
て	-10.5473
君	-10.5473
국가유공자	-10.5473
렐	-10.5473
봉지씩	-10.5473
셋	-10.5473
첸	-10.5473
힐	-10.5473
▁"39"}]}	-10.5473
▁계족로	-10.5473
▁나머지	-10.5473
▁도호쿠	-10.5473
▁반드시	-10.5473
▁블로그	-10.5473
▁야구선수	-10.5473
▁음식을	-10.5473
▁튜링	-10.5473
▁특유의	-10.5473
は	-10.5473
섰	-10.5473
="2">	-10.5473
▁"37"}]}	-10.5473
▁2015-16	-10.5473
▁[29]	-10.5473
▁듀크	-10.5473
▁붕괴	-10.5473
▁이철희	-10.5473
や	-10.5473
字	-10.5473
有	-10.5473
▁닛산	-10.5473
▁부동산	-10.5473
▁시트콤	-10.5473
▁핵심	-10.5473
將	-10.5473
部	-10.5473
▁베를린	-10.5473
패키지	-10.5473
▁[21]	-10.5473
▁[30]	-10.5473
▁개연성이	-10.5473
▁메구로	-10.5473
▁불리게	-10.5473
▁[31]	-10.5473
▁슬롯	-10.5473
▁블랙워그레이몬	-10.5473
書	-10.5473
▁참별로	-10.5473
굿	-10.5473
▁"10"}]}	-10.5473
▁마쓰바라	-10.5473
▁광주광역시	-10.5473
▁댄스	-10.5473
▁아무런	-10.5473
▁세계대전	-10.5473
▁곧바로	-10.5473
▁보스턴	-10.5473
▁디지몬	-10.5473
▁통합우승	-10.5473
▁히어로즈	-10.5473
▁Music	-10.5473
▁환태평양	-10.5473
▁페이스북	-10.5473
▁이른다	-10.5474
▁국내법	-10.5474
▁블루레이	-10.5474
▁정재훈	-10.5474
▁무렵	-10.5474
▁단점은	-10.5474
▁생겨	-10.5474
▁0.2%	-10.5474
▁새마을호	-10.5474
▁라이온즈	-10.5474
▁중이던	-10.5474
▁Yes	-10.5474
▁타율	-10.5474
▁쓰시마	-10.5474
▁머피	-10.5474
▁파일럿	-10.5474
▁문화재청	-10.5474
▁농업	-10.5474
▁이르러	-10.5474
▁확인함	-10.5474
▁2.8%	-10.5474
▁유일한	-10.5474
▁알렉스	-10.5474
▁라틴어	-10.5475
-07-	-10.5475
▁해결	-10.5475
▁칠레	-10.5475
▁종료	-10.5475
▁오랜	-10.5475
▁인천항	-10.5475
▁퍼져	-10.5475
▁올렸다	-10.5475
▁호소가	-10.5475
▁고려시대	-10.5475
▁김대중	-10.5475
▁갈색	-10.5475
▁로버트	-10.5475
▁내놓	-10.5475
▁비교적	-10.5475
▁각국의	-10.5476
▁상륙	-10.5476
▁작성	-10.5476
▁미술관	-10.5476
▁대규모	-10.5476
▁망루	-10.5476
권씩	-10.5477
▁음악쇼	-10.5477
▁사육	-10.5477
▁리틀	-10.5477
▁제공하고	-10.5477
▁매각	-10.5477
▁공룡	-10.5477
▁작사	-10.5477
▁양궁	-10.5477
▁경북	-10.5478
▁운용	-10.5478
▁mph	-10.5478
▁카를로스	-10.5478
▁화이트	-10.5478
▁교환	-10.5478
kg	-10.5478
▁계기는	-10.5478
▁창설	-10.5478
▁좌표	-10.5478
▁맡았던	-10.5479
▁잡종	-10.5479
▁전라남도청	-10.5479
▁요크	-10.5479
▁집안	-10.5479
▁항상	-10.5479
▁잠시	-10.5479
▁노동당	-10.548
▁알레르기	-10.548
▁가져간다	-10.548
▁외환	-10.548
▁리더	-10.548
-0017	-10.548
▁혜성	-10.548
▁상대적으로	-10.548
▁티치	-10.5481
▁터키	-10.5481
선발투수	-10.5482
▁공급	-10.5482
항제	-10.5483
▁살아	-10.5483
▁원작으로	-10.5484
▁3.5	-10.5484
▁서울대학교	-10.5484
▁히트	-10.5484
▁월간	-10.5484
▁코르	-10.5484
▁것처럼	-10.5485
▁살해	-10.5485
▁해외	-10.5485
▁전북	-10.5485
▁규정	-10.5485
▁지속	-10.5485
▁대항하	-10.5486
▁프로미	-10.5486
▁지브란의	-10.5486
▁미쿠	-10.5486
▁유로파의	-10.5486
▁4.6%	-10.5487
▁콩	-10.5487
▁김창	-10.5487
▁비롯한	-10.5488
▁생각해	-10.5488
▁대립	-10.5488
▁고속	-10.5488
▁전술을	-10.5488
▁특별한	-10.5488
▁교하	-10.5489
▁탐사	-10.5489
▁방식으로	-10.5491
▁My	-10.5491
▁낙	-10.5491
▁만들었다	-10.5492
▁전철	-10.5492
▁베이스	-10.5492
▁샤를	-10.5492
▁불린	-10.5493
▁그런	-10.5493
▁도금	-10.5493
▁조금	-10.5493
▁에클스턴은	-10.5493
▁내역	-10.5494
▁나타나는	-10.5494
▁크기	-10.5495
▁승계	-10.5495
▁4.1%	-10.5496
▁전달	-10.5496
▁여기서	-10.5496
▁인사	-10.5497
▁사형	-10.5497
▁오토	-10.5498
▁지식	-10.5498
▁김민	-10.5498
▁재정	-10.5499
▁열었고	-10.5499
▁조약을	-10.5499
▁사회적	-10.5499
▁엔진을	-10.5499
▁설립한	-10.55
▁여당	-10.55
▁어렵다	-10.5501
▁연예인	-10.5501
▁3.1%	-10.5502
▁년일까	-10.5503
▁배구	-10.5503
▁해당하는	-10.5504
▁참가한	-10.5504
증을	-10.5504
▁내린	-10.5504
▁성경	-10.5504
-02	-10.5505
▁형태로	-10.5505
▁강원도	-10.5505
▁승마	-10.5505
토스	-10.5506
▁예산	-10.5506
▁방해	-10.5507
▁여우	-10.5507
▁글자	-10.5507
▁알파	-10.5508
▁군대를	-10.5509
▁주간	-10.5509
▁득표율은	-10.5509
▁인원은	-10.5509
▁구별	-10.5509
▁적어	-10.551
▁웅진	-10.551
▁향상	-10.551
▁군대	-10.5511
▁남쪽	-10.5511
▁것인가	-10.5511
▁쌍	-10.5511
▁톰	-10.5511
▁괜찮아	-10.5511
▁길정화	-10.5511
▁코미디	-10.5511
▁강진원	-10.5511
▁공산당	-10.5511
▁Best	-10.5511
▁김다래	-10.5511
▁탈퇴	-10.5511
▁오른쪽	-10.5512
▁논	-10.5512
▁드라마스페셜	-10.5512
▁목소리	-10.5512
▁숙청	-10.5513
▁성우는	-10.5513
▁감시	-10.5513
-17	-10.5513
▁합류	-10.5513
▁바흐	-10.5514
▁눈물	-10.5514
▁영웅	-10.5514
▁장비	-10.5514
▁전설	-10.5515
▁메인	-10.5517
▁봉지을	-10.5517
▁코너	-10.5517
▁유우	-10.5518
▁페루	-10.5518
▁고용	-10.5518
▁인해서	-10.5519
▁때까지	-10.5519
▁인하여	-10.5519
▁이긴	-10.552
▁잡아	-10.5521
▁부분을	-10.5521
▁김명	-10.5521
▁함정	-10.5522
▁득	-10.5526
▁가치가	-10.5526
▁그림을	-10.5526
순위	-10.5527
▁일요일에	-10.5529
▁방어	-10.5529
▁속도로	-10.553
▁태양의	-10.5532
▁사마	-10.5532
▁1904	-10.5533
▁플레이어가	-10.5534
▁대중	-10.5537
조제	-10.5537
▁참	-10.5538
▁증명	-10.554
▁명칭은	-10.554
포스	-10.5543
▁헤이	-10.5543
▁촌이	-10.5543
▁경험을	-10.5546
▁니카라과의	-10.5547
43",	-10.5547
임을	-10.5549
▁평가를	-10.5549
dd	-10.5553
▁며칠에	-10.5553
▁차량	-10.5553
▁1965	-10.5555
▁국가대표팀의	-10.5555
▁승점이	-10.5556
▁빛의	-10.5556
▁요리	-10.5557
▁외야	-10.5559
▁일어나는	-10.556
▁총장의	-10.5561
▁시작으로	-10.5562
▁기자를	-10.5563
▁빙하에	-10.5565
▁포함된	-10.5567
▁전투에서	-10.5569
지를	-10.557
▁주어	-10.5572
▁왕조	-10.5573
▁여단	-10.5573
▁미스	-10.5574
98",	-10.5576
▁사건은	-10.5576
▁승리를	-10.5576
▁한신	-10.5576
▁사운드	-10.5577
▁前	-10.5577
▁혐의로	-10.5577
▁그들은	-10.5577
▁국제영화제	-10.5578
▁동화	-10.5579
▁게이트	-10.5579
to	-10.5579
▁금융	-10.5579
▁데이터	-10.558
▁왕과	-10.558
했기	-10.558
61",	-10.558
▁모델은	-10.5583
▁경남	-10.5584
▁형태의	-10.5584
▁카드의	-10.5585
▁멤버는	-10.5587
▁벤	-10.5587
▁예정	-10.5589
▁5,000	-10.559
▁무리	-10.5591
▁접속	-10.5592
▁게임에서	-10.5592
▁과정은	-10.5596
MI	-10.56
▁상대로	-10.5604
▁차지한	-10.5606
▁경계	-10.5609
▁인한	-10.561
▁울	-10.5611
▁전파	-10.5611
▁솔	-10.5612
▁고아	-10.5612
▁기록했다	-10.5616
▁곡은	-10.5616
▁공격을	-10.5616
▁셀	-10.5619
▁+5	-10.5623
인치	-10.5623
▁공명	-10.5623
▁동물의	-10.5624
▁경우에는	-10.5625
▁금속의	-10.5625
▁게임은	-10.5625
▁정상	-10.5625
7.4	-10.5626
▁점에서	-10.5628
▁것도	-10.5628
▁과정을	-10.5628
간다	-10.5629
진은	-10.5633
▁자사	-10.5633
▁170	-10.5634
▁군인	-10.5636
▁시청률은	-10.5638
▁작업	-10.5646
▁왕립	-10.5649
▁농	-10.565
▁필드	-10.5651
지면서	-10.5658
▁엘리	-10.5659
주는	-10.5661
▁Ja	-10.5662
▁등장하는	-10.5664
▁나무	-10.5667
동은	-10.5667
▁강한	-10.5669
▁관계를	-10.5672
▁이상을	-10.5674
.0%	-10.5675
▁교회의	-10.5677
▁영화의	-10.5678
컵의	-10.5679
▁정혜	-10.5681
-0020	-10.5686
2017	-10.5689
-5	-10.569
▁비밀의	-10.5694
쪽	-10.5694
▁응	-10.5695
▁여성의	-10.5695
▁도중	-10.5696
▁사이트	-10.5699
▁잠	-10.5703
▁뜻이	-10.5705
▁순위는	-10.5709
리의	-10.571
▁십	-10.5714
▁중에	-10.5716
▁이라는	-10.5716
▁타임	-10.572
▁220	-10.5723
▁Album	-10.5725
▁0.6	-10.573
▁권리	-10.5731
▁감독이	-10.5734
▁사용을	-10.5736
▁한다고	-10.5737
▁내부	-10.574
▁감소	-10.5741
▁대학교는	-10.5741
▁법은	-10.5742
리온	-10.5743
96",	-10.5747
▁보았	-10.5751
▁피해	-10.5753
▁그해	-10.5759
▁기원	-10.5766
100	-10.5766
▁남기	-10.5767
▁주었	-10.5768
▁기업	-10.5768
▁이유	-10.5774
▁후보로	-10.578
▁세계에서	-10.5788
▁적이	-10.5789
▁강사	-10.5792
▁사전	-10.5794
국이	-10.5797
년은	-10.5807
▁수비	-10.5814
▁이경	-10.5817
▁이정	-10.582
▁너	-10.5821
▁구리	-10.5826
▁부호	-10.5826
▁파이	-10.5826
안을	-10.5827
▁탈	-10.5827
▁이들의	-10.5827
▁시즌을	-10.5829
▁당한	-10.5829
▁대회의	-10.583
▁아이들	-10.5843
▁낸	-10.585
▁탕	-10.5854
▁선고	-10.5854
노스	-10.5856
ho	-10.5861
75	-10.5876
▁인원	-10.5882
▁카와	-10.5892
▁정부의	-10.5893
▁공간이	-10.5895
▁표면	-10.5897
▁설	-10.59
상의	-10.5905
세기에	-10.5907
▁콘	-10.5916
▁방송을	-10.5925
다리	-10.5934
도와	-10.5935
▁향	-10.5949
▁한국은	-10.5951
▁역도	-10.5961
▁권을	-10.5961
▁원을	-10.5969
ment	-10.5976
인은	-10.5992
▁제시	-10.5998
▁프랑스는	-10.6007
장이	-10.6007
▁출발	-10.6012
▁Y	-10.6016
▁웅	-10.6022
이버	-10.6028
행위	-10.603
▁제기되	-10.6033
▁바다	-10.6036
▁+3	-10.6038
▁지수	-10.604
▁de	-10.6042
▁Or	-10.6043
BC	-10.6051
▁데에	-10.6052
▁출시되었	-10.6055
▁후지	-10.6057
)」	-10.6057
▁방문	-10.606
▁도와	-10.6065
▁오다	-10.6065
▁숙	-10.6069
선의	-10.6074
▁조명	-10.6074
▁절	-10.6075
▁야구장	-10.6077
▁상승	-10.6079
와의	-10.608
▁지방의	-10.6108
▁경우가	-10.612
▁음	-10.612
▁63	-10.6124
▁요구	-10.6125
으로도	-10.6128
으로는	-10.613
426	-10.6132
1.0	-10.6138
▁가치	-10.6154
▁부를	-10.6156
)'	-10.6159
▁안전	-10.6165
티브	-10.6179
카와	-10.6202
▁정책을	-10.6209
▁조절	-10.6211
▁김태	-10.6231
▁71	-10.6241
▁73	-10.6241
▁달려	-10.6247
군을	-10.6248
해진	-10.6257
▁부활	-10.6263
▁역의	-10.6272
▁수원시	-10.6273
49",	-10.6277
pa	-10.6279
제도	-10.6286
AT	-10.6313
디아	-10.6321
無心	-10.6327
부에서	-10.6332
▁가리	-10.6341
5]	-10.6356
▁(19	-10.6357
▁포함	-10.6359
▁가입	-10.6364
▁자가	-10.6366
▁사가	-10.6369
/>(	-10.6376
▁가로	-10.638
▁66	-10.6381
1.8	-10.6386
대학교의	-10.64
916	-10.6422
력과	-10.6426
▁업	-10.6493
▁방법	-10.6496
▁개을	-10.6497
▁많았	-10.6498
▁사망하였	-10.6506
▁57	-10.6511
▁색	-10.6525
▁경기의	-10.6541
▁역은	-10.6542
▁곡이	-10.6567
.7%	-10.657
ight	-10.6577
97	-10.6595
ine	-10.66
▁이나	-10.6613
냈다	-10.6627
19",	-10.6632
▁줄이	-10.6638
2013	-10.6643
▁72	-10.6655
상이	-10.6659
▁드라마의	-10.669
▁공사	-10.6695
▁징	-10.6699
▁r	-10.6699
▁김성	-10.6714
-0047	-10.6714
▁박준	-10.6734
▁확보	-10.6735
시마	-10.6736
▁옮겨	-10.6736
▁사는	-10.6738
▁소속이었	-10.6739
▁한국에서	-10.6744
▁서준는	-10.6748
원으로	-10.6753
사회	-10.6762
시설	-10.6763
79	-10.6768
▁방법이	-10.6773
-0004	-10.6775
▁정해	-10.6811
신의	-10.6833
1962	-10.6851
▁알려	-10.6867
수도	-10.6874
▁하다	-10.6879
천시	-10.6894
▁테스트	-10.6898
리며	-10.6904
구에	-10.6934
▁에서는	-10.6937
(1	-10.6938
▁이력	-10.696
▁가을	-10.6966
럴	-10.6968
▁Not	-10.6992
연기상	-10.6996
16",	-10.7005
대를	-10.7014
▁말한	-10.7017
호의	-10.702
▁천사	-10.703
▁들이	-10.7031
량은	-10.7041
선거구의	-10.7044
▁확률	-10.7052
▁하나인	-10.7052
▁노동자	-10.7062
▁근처	-10.7062
자에게	-10.7063
▁용병	-10.7067
▁모음	-10.7071
역을	-10.7091
▁전문	-10.7098
▁정의	-10.7109
▁운전	-10.7112
학적	-10.7118
)》	-10.7123
무를	-10.7139
▁차이	-10.7146
▁세금	-10.7167
당한	-10.7173
분이	-10.7213
▁88	-10.7217
▁108	-10.722
▁실점	-10.7229
▁자국	-10.7239
라스	-10.7251
▁개편	-10.7271
▁장애	-10.7282
▁_	-10.7288
렸다	-10.7288
자에	-10.7295
▁활용	-10.7301
▁바뀌	-10.7302
▁갈등	-10.7311
▁늘	-10.7313
▁Di	-10.7318
진을	-10.7319
0,000–	-10.7324
966	-10.7329
합	-10.7342
▁이기	-10.7345
아의	-10.7346
ol	-10.7348
▁68	-10.7357
였으며	-10.7371
▁의견	-10.7383
쓰	-10.7387
ic	-10.7401
협	-10.7409
▁필요	-10.7412
▁사람들	-10.7424
"@	-10.7428
od	-10.743
ht	-10.7445
▁(20	-10.7462
1929	-10.7467
클	-10.7481
▁쓰는	-10.7482
.1%	-10.7487
▁184	-10.749
▁대응	-10.7493
0]	-10.7493
엄	-10.7496
인이	-10.7497
▁마츠	-10.7513
▁국가대표	-10.7516
▁지시	-10.7519
네스	-10.7521
▁농구	-10.7525
법을	-10.7532
▁공개되었	-10.7536
24	-10.7541
▁현상	-10.7546
감독	-10.7553
ge	-10.7561
▁특별	-10.7563
▁Li	-10.7565
77	-10.7578
검	-10.7584
객	-10.7585
▁터	-10.7586
o	-10.7592
3.4	-10.7595
랜	-10.7611
척	-10.7612
렉	-10.7613
능	-10.7615
장으로	-10.7616
의원	-10.7616
났다	-10.762
1.5	-10.7625
▁선정	-10.7626
for	-10.7629
델	-10.7631
응	-10.7637
▁개최	-10.7639
산동	-10.7643
육	-10.7644
샤	-10.7646
▁주제	-10.7646
▁보여	-10.7646
국민	-10.7648
땅	-10.7648
1</	-10.7649
▁이와	-10.7653
er	-10.7654
십	-10.7662
우메다	-10.7664
쉬	-10.7664
오늘	-10.7666
벤	-10.7666
칠	-10.7667
부를	-10.767
둔	-10.7671
잠	-10.7673
따	-10.7673
효과	-10.7675
퇴	-10.7676
취	-10.7677
이것	-10.7678
선수권	-10.7682
폐	-10.7682
베르	-10.7683
채널	-10.7685
넘	-10.7688
바라	-10.7689
녹	-10.769
봄	-10.7691
타임	-10.7692
뮤직	-10.7693
with	-10.7694
졸업	-10.7696
이름	-10.7696
혁명	-10.7698
산업	-10.7699
머리	-10.7699
MBC	-10.7702
보물	-10.7702
▁접	-10.7702
창원	-10.7703
패를	-10.7703
서울	-10.7705
영화제	-10.7709
▁그러	-10.771
종목	-10.7712
▁시험	-10.7717
황제	-10.7719
장군	-10.772
관리	-10.7721
▁소방	-10.7723
▁캐릭터	-10.7723
코드	-10.773
▁측	-10.7734
단계	-10.7737
되었지만	-10.774
스가	-10.774
▁사적	-10.7745
시에	-10.7746
되었던	-10.7747
제약	-10.7751
2008	-10.7758
▁살았을	-10.776
9%	-10.7764
현재	-10.7764
▁주문	-10.7766
▁여행	-10.7773
▁먹	-10.7774
▁국가대표팀	-10.7775
7]	-10.7778
요시	-10.7781
당시	-10.7782
▁시작되었	-10.7784
IP	-10.7795
여자	-10.7797
마리	-10.78
단체	-10.7804
지역	-10.7806
▁냈	-10.781
째	-10.7814
▁이현	-10.7816
한국	-10.7817
사는	-10.7823
교수	-10.7828
▁컴퓨터	-10.7829
연도	-10.7831
▁지휘	-10.7831
▁브라더스	-10.7835
2001	-10.7846
▁신칸센	-10.7851
▁도르트문트	-10.7851
▁마나트	-10.7851
▁송나라	-10.7853
▁해에	-10.7856
▁장진영	-10.7862
44	-10.7863
▁혈맹	-10.7863
▁않았	-10.7867
▁결승	-10.7867
▁경종	-10.787
▁기능	-10.7875
▁공포	-10.7878
▁대부분	-10.7879
co	-10.7883
▁부모	-10.7884
위원회가	-10.7894
▁위험	-10.7898
▁특징이	-10.79
▁사회주의	-10.7903
▁조선일보	-10.7903
▁시내버스	-10.7903
값	-10.7903
Po	-10.7905
▁로열스	-10.7906
럼	-10.7908
▁윈도우	-10.7909
▁플라	-10.7915
ver	-10.7917
폰	-10.7921
-0014	-10.7925
▁논문	-10.7925
메이	-10.7927
켈	-10.7928
▁빛	-10.7929
▁처벌	-10.7929
▁남극	-10.7933
▁다수	-10.7934
ens	-10.7935
▁스파	-10.7935
▁메시지	-10.7937
▁바라	-10.794
▁모스크바	-10.7941
▁장소	-10.7945
▁비롯	-10.7946
▁KT	-10.7949
▁Man	-10.7952
▁정확	-10.7952
▁말린스	-10.7953
군단	-10.7953
▁왔	-10.7954
▁사진	-10.7955
▁관찰	-10.7955
▁노예	-10.7957
▁저녁	-10.7957
▁언론	-10.7958
예술	-10.7958
▁출마	-10.7962
▁아랍	-10.7963
▁전통	-10.7963
▁호석	-10.7963
▁기획	-10.7964
▁공군	-10.7964
▁내무부	-10.7965
렬	-10.7965
틱	-10.7965
칙	-10.7965
▁놀	-10.7966
▁김종	-10.7967
▁찾아	-10.7967
혀	-10.7967
틸	-10.7967
▁아카데미	-10.7967
り	-10.7972
ル	-10.7972
즘	-10.7972
▁이스라엘	-10.7973
氏	-10.7973
る	-10.7973
う	-10.7973
靈	-10.7973
が	-10.7973
と	-10.7973
め	-10.7973
チ	-10.7973
ライ	-10.7973
핵	-10.7973
サ	-10.7973
って	-10.7973
ス	-10.7973
利	-10.7973
思	-10.7973
疑	-10.7973
藤	-10.7973
阿	-10.7973
つ	-10.7973
美	-10.7973
觀	-10.7973
鄭	-10.7973
딘	-10.7973
PORNO	-10.7973
Perrier	-10.7973
ʃ	-10.7973
י	-10.7973
▁Ableton	-10.7973
▁BEST	-10.7973
▁BGB	-10.7973
▁GRAFFITTI	-10.7973
▁Gramercy	-10.7973
▁Indonesia	-10.7973
▁LCCN	-10.7973
▁Magyar	-10.7973
▁Nederlands	-10.7973
▁Norsk	-10.7973
▁Pictures	-10.7973
▁Suomi	-10.7973
▁Svenska	-10.7973
▁VIAF	-10.7973
▁Русский	-10.7973
▁Українська	-10.7973
▁−6	-10.7973
▁개그콘서트	-10.7973
▁고스톱	-10.7973
▁과르디올라	-10.7973
▁그럼에도	-10.7973
▁그렇게	-10.7973
▁기상캐스터	-10.7973
▁김건태	-10.7973
▁네슬레	-10.7973
▁다이슬러는	-10.7973
▁덱시스	-10.7973
▁덴노지	-10.7973
▁동대전로	-10.7973
▁둘러싼	-10.7973
▁듣고	-10.7973
▁디자이너	-10.7973
▁또다시	-10.7973
▁람베르토	-10.7973
▁랭커셔	-10.7973
▁리오코커	-10.7973
▁마이크로소프트	-10.7973
▁말레이시아	-10.7973
▁맺었	-10.7973
▁맺은	-10.7973
▁멜버른	-10.7973
▁미도스지	-10.7973
▁미집계	-10.7973
▁믿었	-10.7973
▁밝힌	-10.7973
▁밴쿠버	-10.7973
▁밴헤켄	-10.7973
▁밸리	-10.7973
▁붙어	-10.7973
▁붙여서	-10.7973
▁브라이언	-10.7973
▁비텔	-10.7973
▁사우디아라비아	-10.7973
▁사해행위	-10.7973
▁산딸기과	-10.7973
▁서태지와	-10.7973
▁손승락	-10.7973
▁스테이크	-10.7973
▁시쇼우	-10.7973
▁썬더스	-10.7973
▁아르눌프	-10.7973
▁아이스하키	-10.7973
▁아티스트	-10.7973
▁안녕하세요	-10.7973
▁않게	-10.7973
▁알고리즘	-10.7973
▁어려운	-10.7973
▁없게	-10.7973
▁없고	-10.7973
▁없으면	-10.7973
▁여객철도	-10.7973
▁오랫동안	-10.7973
▁오픈	-10.7973
▁왼손잡이	-10.7973
▁우루과이	-10.7973
▁우정출연	-10.7973
▁워싱턴	-10.7973
▁월화드라마	-10.7973
▁웨일스	-10.7973
▁이가라시	-10.7973
▁인도네시아	-10.7973
▁인터뷰	-10.7973
▁제네시스	-10.7973
▁충청북도	-10.7973
▁츠벤티볼트	-10.7973
▁컬러	-10.7973
▁쾰른	-10.7973
▁토스카나	-10.7973
▁토크쇼	-10.7973
▁트리니티	-10.7973
▁퍼시픽	-10.7973
▁퍼펙트	-10.7973
▁포르모소	-10.7973
▁포스트시즌	-10.7973
▁폴란드	-10.7973
▁프리드리히	-10.7973
▁프린스턴	-10.7973
▁훗날	-10.7973
キ	-10.7973
也	-10.7973
学	-10.7973
皇	-10.7973
見	-10.7973
陽	-10.7973
黃	-10.7973
강수계관리기금	-10.7973
줌	-10.7973
▁CSS	-10.7973
▁끌어	-10.7973
▁나이지리아	-10.7973
▁도카이도	-10.7973
▁떠난	-10.7973
▁미즈치	-10.7973
▁블로거	-10.7973
▁뿌리	-10.7973
▁송호경	-10.7973
▁스폰서	-10.7973
▁엑스	-10.7973
▁연세대학교	-10.7973
▁오재영	-10.7973
▁코모리	-10.7973
▁테니스	-10.7973
家	-10.7973
貪	-10.7973
상서대전	-10.7973
팡	-10.7973
unusual	-10.7973
▁RCA	-10.7973
▁[72]	-10.7973
▁김일련	-10.7973
▁수목드라마	-10.7973
▁업적을	-10.7973
▁연기대상	-10.7973
▁이시카와	-10.7973
▁일어날	-10.7973
▁출현한	-10.7973
▁칭호를	-10.7973
▁튜더	-10.7973
周	-10.7973
河	-10.7973
緣起	-10.7973
▁김나영	-10.7973
▁미나토	-10.7973
▁박소현	-10.7973
▁시드니	-10.7973
▁Group	-10.7973
▁아마미	-10.7973
▁125-3000	-10.7973
▁[18]	-10.7973
▁오래전부터	-10.7973
▁타카가미	-10.7973
く	-10.7973
용전동	-10.7973
▁"15"}]}	-10.7973
▁[32]	-10.7973
▁다날은	-10.7973
▁막대한	-10.7973
祖	-10.7973
▁[27]	-10.7973
、	-10.7973
▁"14"}]}	-10.7973
▁New	-10.7973
▁[20]	-10.7973
▁닛폰햄	-10.7973
▁도리아는	-10.7973
▁조산대	-10.7973
▁쿼터백은	-10.7973
▁[12]	-10.7973
▁[16]	-10.7973
▁노경은	-10.7973
▁느껴	-10.7973
七	-10.7973
子	-10.7973
空甁	-10.7973
說	-10.7973
▁선호하는	-10.7973
▁SHOW	-10.7973
▁오이마치	-10.7973
▁"36"}]}	-10.7973
▁에어캐나다	-10.7973
▁정덕성	-10.7973
▁접촉	-10.7973
▁거듭	-10.7973
▁행복	-10.7973
▁개념을	-10.7973
▁게다가	-10.7973
▁위대한	-10.7973
▁압축	-10.7973
▁유사한	-10.7973
▁이두나	-10.7973
▁첨가	-10.7973
▁스콧	-10.7973
▁웹드라마	-10.7973
▁이성진	-10.7973
沙	-10.7974
谷	-10.7974
▁덴마크	-10.7974
▁꾸준히	-10.7974
▁나아가	-10.7974
▁당사자	-10.7974
▁색채	-10.7974
▁욕구를	-10.7974
▁홍상삼	-10.7974
▁[53]	-10.7974
합니까	-10.7974
▁계기가	-10.7974
▁김학규	-10.7974
보병사단	-10.7974
▁충북	-10.7974
▁아이돌	-10.7974
▁경보병	-10.7974
▁통합	-10.7974
▁(2017)	-10.7974
▁지붕	-10.7974
▁아나톨리아	-10.7974
▁프랑수아	-10.7974
▁얼음	-10.7974
▁쿠폰	-10.7974
▁협약	-10.7974
▁블랙홀	-10.7974
▁아돌프	-10.7974
▁비평가	-10.7974
▁KIA	-10.7974
▁우수의원상	-10.7974
Park	-10.7974
▁관객	-10.7974
▁night	-10.7974
▁브라운	-10.7974
▁에미상	-10.7974
▁담긴	-10.7974
▁충동이나	-10.7974
▁2010-11	-10.7974
▁뮤지컬배우	-10.7974
▁여섯	-10.7974
▁오늘날	-10.7974
▁친척	-10.7974
▁거둔	-10.7974
▁One	-10.7974
▁장착	-10.7975
▁준이치	-10.7975
▁다넌	-10.7975
▁장애물	-10.7975
▁유니언	-10.7975
▁자리를	-10.7975
투어흐	-10.7975
▁Ro	-10.7975
▁이외의	-10.7975
▁Ha	-10.7975
▁아유미	-10.7975
▁파주시	-10.7975
▁합쳐	-10.7975
▁보루시아	-10.7975
▁형성되어	-10.7975
je	-10.7975
▁교통국	-10.7975
▁에탄올	-10.7975
▁문헌	-10.7975
ade	-10.7975
▁내장재	-10.7975
▁다리우스	-10.7975
▁지체	-10.7975
▁WTO	-10.7976
▁다룬	-10.7976
▁공부를	-10.7976
▁끝난	-10.7976
▁프로필	-10.7976
▁충주시	-10.7976
▁안드레아	-10.7976
▁파라오	-10.7976
▁진술	-10.7976
▁지그날	-10.7976
▁국립	-10.7976
▁위나라	-10.7976
▁연극배우	-10.7976
▁민법	-10.7976
▁Your	-10.7976
▁담배	-10.7977
▁왜곡	-10.7977
▁경빈	-10.7977
▁오래된	-10.7977
▁쪽의	-10.7977
▁인증	-10.7977
▁가가와	-10.7977
▁울산급	-10.7977
ung	-10.7977
▁보낸	-10.7977
▁업데이트	-10.7977
▁일으	-10.7977
▁못해	-10.7977
▁동상이	-10.7977
▁내렸다	-10.7978
▁에릭	-10.7978
음에도	-10.7978
▁이즈미	-10.7978
▁저항	-10.7978
증권	-10.7978
▁농소	-10.7978
▁마찬가지로	-10.7978
▁일자리	-10.7978
▁나치	-10.7978
▁인근	-10.7979
▁건국	-10.7979
▁대국민	-10.7979
▁현존하는	-10.7979
▁원나라	-10.7979
▁발언	-10.7979
▁천거	-10.7979
▁김정일	-10.7979
ular	-10.7979
▁이루어진	-10.7979
▁광복	-10.7979
▁낙선	-10.7979
▁고조선	-10.7979
▁출마하여	-10.798
▁김영주	-10.798
▁한국어판	-10.798
▁식민지	-10.798
▁죽음	-10.798
▁당선된	-10.7981
▁스트라	-10.7981
▁나라별	-10.7981
▁계급	-10.7981
▁사우스포라는	-10.7981
▁병력을	-10.7981
▁함유	-10.7981
▁집계	-10.7982
ege	-10.7982
▁우리나라	-10.7982
▁어떤것들이	-10.7982
▁디아고	-10.7982
▁무효	-10.7982
▁차남	-10.7982
▁Gold	-10.7982
▁통계	-10.7982
▁규정하고	-10.7982
7",	-10.7983
▁항성	-10.7983
▁복수	-10.7983
▁왕건	-10.7983
▁경기결과는	-10.7983
드라몬	-10.7983
옹주	-10.7983
▁독사	-10.7983
▁만난	-10.7983
▁환상	-10.7983
Lee	-10.7983
▁음주	-10.7983
▁천안	-10.7984
▁한국영화	-10.7984
▁현역	-10.7984
▁서양종	-10.7984
▁제노바	-10.7984
▁종종	-10.7985
▁브루	-10.7985
▁기본적인	-10.7985
▁사격	-10.7985
▁몰아	-10.7985
▁민주당	-10.7985
▁한국인의	-10.7985
▁1924	-10.7985
▁포병	-10.7986
▁달린	-10.7986
▁때로는	-10.7986
▁있었으나	-10.7986
▁아베	-10.7987
▁불량	-10.7987
▁신흥	-10.7987
▁강력한	-10.7987
▁출산	-10.7987
ction	-10.7988
▁진학	-10.7988
북면	-10.7988
▁못하게	-10.7988
▁지각	-10.7988
▁우유를	-10.7989
강전에서	-10.7989
▁모피	-10.7989
▁놓고	-10.7989
▁언론인	-10.7989
▁장난	-10.7989
▁인구	-10.799
▁히사	-10.799
▁대공	-10.799
▁코오	-10.799
너스	-10.7991
▁투구	-10.7991
▁국회의	-10.7991
▁출판	-10.7991
▁마산시	-10.7992
▁동방	-10.7992
▁출연했던	-10.7992
▁독도	-10.7992
-0027	-10.7992
▁지정된	-10.7993
▁충동을	-10.7993
▁용산	-10.7993
▁좋아하는	-10.7993
▁경주	-10.7993
▁시범	-10.7993
▁가능성을	-10.7994
▁우르	-10.7994
▁보유	-10.7995
▁연간	-10.7995
▁질량이	-10.7995
▁악어	-10.7995
▁욕	-10.7995
▁카이도	-10.7996
운행	-10.7996
▁군산	-10.7997
▁선수들이	-10.7997
▁입원	-10.7997
▁배정	-10.7997
▁즉위한	-10.7997
▁기사단	-10.7998
▁실현	-10.7998
▁운영하는	-10.7998
▁고창	-10.7998
▁있었는데	-10.7998
▁이익을	-10.7998
▁소리를	-10.7999
▁짝패를	-10.7999
▁순환	-10.7999
▁해운	-10.7999
▁박영	-10.7999
▁용어를	-10.8
▁학습은	-10.8
▁수입	-10.8
▁아노말로카리스는	-10.8
▁조약은	-10.8
▁야우는	-10.8001
▁나이트	-10.8001
▁앞서	-10.8001
▁보면	-10.8001
▁태아	-10.8001
▁오프	-10.8002
▁대량	-10.8002
all	-10.8002
▁받아들이	-10.8002
▁합동	-10.8002
▁선출된	-10.8002
▁1899	-10.8003
▁무엇이며	-10.8003
▁삼아	-10.8003
▁외에도	-10.8003
▁후임	-10.8003
▁바람	-10.8004
▁당신	-10.8004
▁협의회	-10.8004
IS	-10.8005
▁출전한	-10.8005
▁이적한	-10.8006
▁폐지된	-10.8006
▁4.7%	-10.8006
▁자선	-10.8006
▁알아	-10.8007
스터	-10.8007
-0022	-10.8009
▁태양이	-10.8009
▁동의를	-10.8009
▁진행되어	-10.8009
▁전후	-10.801
▁젖	-10.801
▁경영	-10.801
▁현재까지	-10.801
▁책임을	-10.801
▁조별리그에서	-10.801
▁끼	-10.801
▁여기	-10.8011
▁혈맹은	-10.8011
▁우수	-10.8011
▁있었지만	-10.8011
▁거주	-10.8011
▁Coll	-10.8012
▁3.1	-10.8012
▁편지	-10.8013
▁판매량	-10.8013
▁크기로	-10.8013
▁물질이	-10.8013
▁원주시	-10.8013
▁최진	-10.8014
한다는	-10.8015
▁시작하여	-10.8015
▁배차	-10.8015
▁부상을	-10.8015
▁히틀러가	-10.8016
▁크고	-10.8016
1-2	-10.8016
▁하하	-10.8017
▁권리를	-10.8018
▁단계에서	-10.8018
▁득표수는	-10.8018
▁헬	-10.8018
▁2020	-10.8018
▁처벌을	-10.8018
▁기능을	-10.8018
▁좀	-10.8018
▁손자	-10.8019
▁죽음을	-10.8019
▁김형	-10.8019
▁특기	-10.8019
▁국제법	-10.802
▁관심	-10.802
▁소형	-10.802
▁칼리지	-10.802
▁단위로	-10.8021
▁기록하여	-10.8021
▁생년월일은	-10.8021
▁산소	-10.8021
▁입사	-10.8022
▁978-4-08-8747	-10.8022
▁충돌구	-10.8022
▁혈맹이	-10.8023
키스	-10.8023
▁셰	-10.8023
▁사진을	-10.8023
▁호위함	-10.8023
▁DVD	-10.8023
▁뭘	-10.8023
▁요사리안	-10.8023
▁미드나이트	-10.8023
▁자유롭게	-10.8023
▁자이언츠	-10.8023
▁전라북도	-10.8023
▁춤	-10.8023
▁캔	-10.8023
▁뉴질랜드	-10.8023
▁조선민주주의인민공화국	-10.8023
▁홈페이지	-10.8023
▁러너스	-10.8023
▁트레이드	-10.8023
▁상황을	-10.8023
▁[33]	-10.8023
▁하인리히	-10.8023
▁운행업체	-10.8024
▁아시안컵	-10.8025
▁연맹	-10.8025
▁도루	-10.8025
▁제작자	-10.8025
▁비오	-10.8025
▁정식	-10.8026
▁발효	-10.8026
▁존재를	-10.8026
▁남아	-10.8027
▁봉인	-10.8027
▁자주	-10.8028
▁파견	-10.8028
▁변화를	-10.8029
▁참전	-10.8029
▁UK	-10.8029
니키	-10.8029
▁윤씨	-10.8029
▁심리	-10.803
▁트레	-10.803
▁삼국시대	-10.8031
▁금메달을	-10.8031
▁사람에게	-10.8031
▁방면으로	-10.8031
▁황후	-10.8031
방위	-10.8032
▁나누어	-10.8032
▁김진	-10.8033
▁인구가	-10.8033
▁북한을	-10.8034
▁인구는	-10.8035
▁아내는	-10.8035
리주	-10.8035
▁배경은	-10.8036
▁공작	-10.8036
▁여수	-10.8036
SE	-10.8037
▁사건으로	-10.8038
▁유적	-10.8038
▁주석	-10.8039
▁지도자	-10.8039
▁주제가	-10.8039
▁차량이	-10.8039
▁아오	-10.804
▁남성	-10.804
▁사용한다	-10.8041
▁이상으로	-10.8042
▁작년	-10.8042
▁협력	-10.8042
▁차이는	-10.8042
터리	-10.8043
▁김상	-10.8043
▁미상	-10.8044
▁전용	-10.8044
▁요소	-10.8044
▁관점	-10.8045
▁종전	-10.8045
▁못하는	-10.8045
▁영화배우	-10.8046
천만	-10.8047
▁염	-10.8047
▁휴대폰결제를	-10.8049
▁조부	-10.8049
▁건조	-10.8049
▁등급	-10.805
▁저서	-10.805
▁그녀가	-10.805
▁대형	-10.805
▁모양의	-10.805
▁조약의	-10.8051
▁장군의	-10.8052
이사	-10.8052
ON	-10.8053
▁크기는	-10.8054
▁장관은	-10.8054
▁이승만	-10.8054
▁무장	-10.8055
▁통해서	-10.8056
▁태국	-10.8057
▁옷	-10.8058
▁발음을	-10.8058
▁통과	-10.8059
▁구미	-10.8059
▁열렸	-10.8059
▁지적	-10.806
프린	-10.806
▁생활을	-10.8061
▁장면	-10.8061
스부르크	-10.8061
▁라이브	-10.8061
▁By	-10.8062
▁사드	-10.8062
▁피스	-10.8063
▁다섯	-10.8065
▁선제	-10.8065
▁두산	-10.8065
▁벌어지	-10.8065
▁문제를	-10.8067
▁운행하는	-10.8069
▁만들고	-10.8069
BANG	-10.807
▁양주	-10.8071
36",	-10.8071
▁진행하는	-10.8071
▁혹	-10.8072
▁구상	-10.8073
▁승점을	-10.8074
▁총장	-10.8075
▁브레트의	-10.8075
▁점수는	-10.8076
▁제작사	-10.8076
▁자유를	-10.8077
▁창조	-10.8078
▁독일어	-10.8078
▁서게	-10.808
▁말하고	-10.8083
84	-10.8083
▁보내는	-10.8084
▁상호	-10.8084
-15	-10.8085
72",	-10.8085
▁사무소	-10.8085
▁탐	-10.8085
러스	-10.8086
atch	-10.8087
41",	-10.8088
▁이야기를	-10.8091
▁기부했다	-10.8091
함을	-10.8093
▁임기는	-10.8094
▁조선에	-10.8095
▁권력을	-10.8096
▁프랑스어	-10.8096
▁파트	-10.8099
▁기념일	-10.81
▁파인	-10.8104
59",	-10.8107
▁배역은	-10.8107
어진	-10.8107
▁분야	-10.811
nd	-10.811
▁권오성	-10.811
▁아메리칸	-10.811
▁이글스	-10.811
▁룩	-10.811
▁『	-10.811
▁벽	-10.811
▁충격	-10.8111
0.8	-10.8111
▁제대로	-10.8112
▁기호	-10.8113
▁인종	-10.8114
▁반도	-10.8115
▁다음과	-10.8115
▁스토리	-10.8115
▁속도가	-10.8118
▁프로그램명	-10.8118
▁140	-10.8119
▁말하는	-10.8119
▁OB	-10.8119
▁LS	-10.812
▁컨	-10.8121
▁채택	-10.8121
▁재학	-10.8122
▁역전	-10.8123
▁성공을	-10.8123
▁올림픽에서	-10.8124
▁자란	-10.8126
수가	-10.8129
▁약간	-10.8129
▁끝났	-10.813
마저	-10.8133
▁기술을	-10.8135
▁원판	-10.8137
▁세운	-10.8138
▁문제는	-10.8138
▁대사	-10.8139
회초	-10.8141
3.9	-10.8142
생명	-10.8143
▁속에서	-10.8143
▁공략	-10.8147
▁성장을	-10.8151
▁화성	-10.8152
▁경과	-10.8153
ick	-10.8155
▁수구	-10.8156
▁학교를	-10.8156
▁이래	-10.8157
▁통로	-10.8158
▁290	-10.816
사이드	-10.8161
▁연도와	-10.8161
▁나이는	-10.8162
▁기자가	-10.8162
▁친정	-10.8163
드컵	-10.8165
▁이름과	-10.8167
▁처음에는	-10.8167
▁오늘	-10.8168
▁달은	-10.8171
▁(2)	-10.8173
▁월드컵에서	-10.8173
▁프로그램을	-10.8174
▁대표는	-10.8175
▁나오	-10.8175
▁이루어지	-10.8176
▁전쟁이	-10.8176
공단	-10.8177
▁장기	-10.8183
▁에드	-10.8187
▁킬	-10.8188
▁상태에서	-10.8189
▁축	-10.819
▁관계는	-10.819
▁보안	-10.819
▁존재하는	-10.819
▁해도	-10.8191
▁살았	-10.8192
▁일반에	-10.8193
▁중형	-10.8196
▁되자	-10.8196
▁독	-10.8196
▁센터	-10.8198
▁노승우	-10.8201
▁Mii	-10.8201
▁통일	-10.8201
르기	-10.8202
▁김기	-10.8202
▁합니다	-10.8203
ca	-10.8204
▁주변의	-10.8204
▁디스크의	-10.8205
▁대통령이	-10.8209
▁수가	-10.821
▁자키	-10.8214
▁무인	-10.8218
질이	-10.8219
▁주위	-10.822
▁분지	-10.8222
▁제국의	-10.8223
▁대학원	-10.8224
▁탐험대	-10.8225
루스	-10.8227
제국	-10.8227
▁360	-10.8228
▁나카	-10.823
sa	-10.8233
▁쓰이는	-10.8233
▁차례의	-10.8234
▁이즈	-10.8235
▁사람과	-10.8235
▁행위	-10.8239
▁이용한	-10.8239
▁회사의	-10.8241
▁마치	-10.8242
정희	-10.8244
▁쓰지	-10.8244
▁Comp	-10.8245
▁아래에서	-10.8247
▁주교	-10.8248
▁지대	-10.8251
▁태자	-10.8251
▁이루	-10.8251
▁전쟁은	-10.8252
▁않는다는	-10.8254
▁놀이	-10.8257
▁있었고	-10.8257
7-1	-10.8259
조를	-10.8261
▁속도는	-10.8263
▁시간을	-10.8264
▁회차는	-10.8266
▁돌아가	-10.8267
▁속에	-10.8267
르고	-10.827
▁(12	-10.827
la	-10.828
정은	-10.828
▁아내	-10.8284
▁(26	-10.8284
▁칠	-10.8285
구이	-10.8286
▁삭제	-10.8287
▁쉬	-10.8288
▁줄의	-10.8289
▁공개된	-10.8289
▁당시에는	-10.829
▁크레	-10.829
▁3.2	-10.8291
▁인정	-10.8291
▁우메다	-10.8292
인들이	-10.8294
▁능	-10.83
입	-10.83
국의	-10.83
▁나라의	-10.8303
풀이	-10.8306
▁무기	-10.8307
▁엽	-10.8308
라바	-10.8309
제로	-10.831
▁키스	-10.8315
▁영국에서	-10.8316
▁빌	-10.8318
▁가지가	-10.8323
우는	-10.8324
▁결의	-10.8327
호정	-10.8328
▁안장	-10.8332
▁왔다	-10.8339
화와	-10.8345
▁주지	-10.8346
치의	-10.835
신이	-10.8357
▁전력	-10.8361
▁아르헨티나의	-10.8361
▁경로	-10.8361
▁시즌은	-10.8362
화된	-10.8363
▁교장	-10.8365
▁펠	-10.8365
▁86	-10.8365
▁완성	-10.8368
세이브를	-10.8369
▁수호	-10.837
▁99	-10.837
년대에	-10.8374
▁롤	-10.8375
▁사장	-10.838
▁국가들	-10.8381
▁대하드라마	-10.8385
▁유도	-10.8386
씨와	-10.8389
▁야마	-10.8392
▁때에는	-10.8397
▁권장	-10.8399
▁세종대왕	-10.84
▁재배	-10.8404
8.4	-10.8404
▁하나가	-10.8406
▁품	-10.8409
▁축구단	-10.841
▁달리기	-10.8411
▁109	-10.8411
트리	-10.8417
▁지진	-10.8418
▁케이	-10.8418
로서는	-10.8419
93	-10.8421
45	-10.8425
▁위에	-10.8428
시장	-10.843
▁이사	-10.8433
때문	-10.8441
▁주한	-10.8443
9.9%	-10.8449
▁밑	-10.8453
▁프로그램의	-10.8453
▁각각의	-10.8453
▁평일	-10.8457
▁하이	-10.846
▁처음에	-10.8461
▁따른다	-10.8465
마타	-10.8468
▁방송은	-10.8468
▁최다	-10.8468
▁동사	-10.8469
▁액	-10.847
▁한자	-10.8471
▁왕은	-10.8476
▁권의	-10.8478
로서의	-10.8479
▁고로	-10.848
▁킹	-10.8483
군은	-10.8484
▁정착	-10.8485
▁대통령의	-10.8489
▁세대	-10.8489
▁부르는	-10.8491
▁외에	-10.8491
년도	-10.8493
▁공격적	-10.8494
▁두고	-10.8496
▁일일	-10.8498
아이	-10.8501
점에	-10.8501
▁일본에서	-10.8501
▁료	-10.8514
▁중반	-10.8514
▁성화	-10.8516
▁곡의	-10.852
▁용의	-10.8521
▁역사를	-10.8525
.01	-10.8533
-0003	-10.8534
▁강동	-10.8535
강에서	-10.8542
▁앨범은	-10.8545
▁부대	-10.855
ran	-10.855
이지	-10.8554
▁정도의	-10.8558
리나	-10.8558
성원	-10.8561
."}]}	-10.8563
▁되기	-10.8564
▁근처에	-10.8565
▁얼	-10.8566
▁싱	-10.8569
▁맨	-10.857
▁가진다	-10.8571
▁라운드	-10.8574
니는	-10.8579
▁나를	-10.858
rin	-10.8589
▁경성	-10.859
단의	-10.8591
로부터의	-10.8595
NE	-10.8596
▁생각한	-10.86
▁불가	-10.8601
▁어떠했나	-10.8602
ire	-10.861
▁들을	-10.8612
분에	-10.8612
사거리	-10.8615
▁사람에	-10.8617
카스	-10.8617
이었고	-10.8618
▁수성	-10.8618
BA	-10.8621
▁컵	-10.8626
▁침	-10.8632
하였는데	-10.8633
르게	-10.8636
일간	-10.8639
▁되었	-10.8643
구당	-10.8647
▁공원	-10.8648
트를	-10.8657
▁IP	-10.8659
▁줄리	-10.866
▁간다	-10.8663
mi	-10.8679
▁하늘	-10.8684
▁차지	-10.8689
▁내일	-10.8697
제가	-10.8698
▁아동	-10.8703
▁갈등이	-10.8705
▁마시	-10.8713
▁엔	-10.873
권한	-10.8735
▁하에	-10.8735
르카	-10.8744
▁안에서	-10.8755
▁당선	-10.876
▁파라	-10.8762
년생	-10.8766
▁하나의	-10.8768
▁등은	-10.8768
▁쓰였	-10.8771
점이	-10.8782
▁세계에	-10.8785
>0	-10.8786
▁ng	-10.8805
▁있기	-10.8822
▁시설	-10.8828
▁주도	-10.8836
▁두번째	-10.8842
▁하는데	-10.8849
▁교체	-10.8851
▁철폐	-10.8854
(1)	-10.8862
▁분류가	-10.8864
▁정치적	-10.8864
▁선정되었	-10.8867
▁리그에서	-10.8869
▁일가	-10.8872
▁확정	-10.8878
▁했으나	-10.8881
▁Ju	-10.8881
ate	-10.8883
▁이름의	-10.8891
▁브리	-10.8892
▁공기	-10.8899
스케	-10.8903
▁아카	-10.8904
▁유가	-10.8927
6"}]}	-10.8934
▁+4	-10.8941
보다도	-10.8941
리니	-10.8951
▁되었나	-10.8961
었던	-10.8978
▁당시에	-10.8979
▁결성	-10.8982
▁주기	-10.9013
▁공의	-10.9014
103	-10.9015
교도	-10.9025
거야	-10.9035
ch	-10.9041
가스	-10.9045
출된	-10.9049
1955	-10.9055
▁의지	-10.9058
▁의무	-10.9088
▁그와	-10.9106
▁모르	-10.9117
민이	-10.9136
▁인물로	-10.9138
▁훈	-10.9139
67",	-10.9146
▁번의	-10.9156
▁포수	-10.9175
브로	-10.92
il	-10.9219
▁팀을	-10.922
트가	-10.9245
나이	-10.9246
왔다	-10.925
▁(14	-10.9251
SP	-10.9256
시로	-10.9261
어져	-10.9265
되기도	-10.9268
부문	-10.9279
▁연관	-10.9284
▁동대문구	-10.9284
▁사용해	-10.9285
▁올리	-10.929
히로	-10.9294
2.0	-10.9303
▁경이	-10.9312
져서	-10.9313
프레	-10.9325
nu	-10.9327
ste	-10.9336
▁미치	-10.9339
3.2	-10.9341
▁우리가	-10.9359
178	-10.936
었고	-10.9366
야할까	-10.9373
페이	-10.9381
▁서연는	-10.9383
중에서	-10.9384
▁후쿠	-10.9396
500	-10.941
아리	-10.941
어스	-10.9419
700	-10.9428
▁후보의	-10.9436
▁(8	-10.944
56",	-10.9441
▁방송의	-10.9444
렸	-10.9456
.9%	-10.9464
▁동의	-10.9467
1848	-10.947
▁선수로	-10.951
▁국왕	-10.955
안전	-10.9553
▁후기	-10.9565
부는	-10.9572
▁주말	-10.958
▁135	-10.9587
MA	-10.959
8.6	-10.9621
▁시작하였	-10.9641
~1	-10.9645
▁에서도	-10.9647
▁관계에	-10.9658
▁명이었	-10.9662
우의	-10.9676
ri	-10.9678
▁자의	-10.969
-6	-10.9696
정된	-10.9699
▁못하	-10.9704
▁제안	-10.9719
▁전에서	-10.9719
▁가정	-10.9734
DO	-10.9788
63",	-10.9791
▁중국에서	-10.9793
▁시작했	-10.98
물에	-10.9809
▁정신적	-10.9815
단에	-10.9834
▁남편이	-10.9834
~3	-10.9843
▁NO	-10.9847
▁중단되었	-10.9848
쪽에	-10.9852
화되어	-10.9859
913	-10.9864
경찰서	-10.9882
▁기록되어	-10.9883
(3	-10.9885
154	-10.9885
▁판타지	-10.9905
함대	-10.9924
無	-10.9943
▁피해자	-10.9952
콜	-10.9952
▁츠	-10.9969
▁알프	-10.9978
왕은	-10.998
▁280	-10.9981
▁0.0	-11.0003
▁+	-11.0007
였어	-11.0035
▁사자	-11.0041
▁DS	-11.0057
.06	-11.0058
동사	-11.0071
▁106	-11.0082
주시	-11.0089
▁굴	-11.0094
었는데	-11.0094
274	-11.0095
문을	-11.0098
▁강인	-11.0134
치오	-11.0141
▁명인	-11.0144
▁임견미	-11.0146
▁Ho	-11.0148
밀한	-11.0176
구리	-11.0178
▁민주	-11.019
거스	-11.0194
타스	-11.0201
하나	-11.0227
▁베이	-11.0235
▁발발	-11.0237
사항	-11.0245
▁성우	-11.0251
▁물질	-11.0262
▁원자	-11.0265
대구	-11.0269
us	-11.0277
자들이	-11.0279
5)	-11.0282
▁구입	-11.0289
▁개시	-11.0291
나도	-11.0313
스키	-11.0315
법은	-11.0321
not	-11.0321
▁330	-11.0328
전에	-11.033
소를	-11.033
▁팀들	-11.0341
태자	-11.0358
ad	-11.0363
체제	-11.0389
>19	-11.041
▁150	-11.0413
▁했	-11.0428
부분	-11.0441
▁도시철도	-11.0444
마당	-11.0458
▁명단	-11.0464
▁규칙이	-11.049
ong	-11.0491
▁제거하	-11.0492
▁점이	-11.0504
내에서	-11.0526
호는	-11.0542
14",	-11.0551
▁때의	-11.057
▁유래	-11.0582
승을	-11.0584
▁발생하였	-11.0592
타이	-11.06
▁우리의	-11.0609
▁엔진	-11.0617
▁유전	-11.0641
▁119	-11.0646
▁전하	-11.0665
▁사법	-11.0672
▁논란	-11.0675
것	-11.0676
▁167	-11.0679
▁성인	-11.0682
소가	-11.0687
▁하늘에	-11.069
▁중반에	-11.0691
동성	-11.0692
TE	-11.0694
▁밑에	-11.0694
▁176	-11.0703
▁오스	-11.0719
3.6	-11.0719
▁음반에	-11.0727
▁귀족	-11.0735
ber	-11.0743
어서	-11.0744
바이	-11.0749
마스	-11.0755
▁진입	-11.0755
▁재배되	-11.0757
특	-11.0764
사까지	-11.0765
▁이민	-11.0772
▁뜻	-11.0779
▁나누	-11.0786
▁발간	-11.079
하였던	-11.0808
89",	-11.082
▁성취	-11.0831
역의	-11.0835
▁확신	-11.0843
▁용어	-11.0856
무라	-11.0861
연구원	-11.0865
국을	-11.0867
누가	-11.087
▁전문가	-11.087
물로	-11.0875
▁위원회	-11.0885
506	-11.0896
▁모리	-11.0919
맹	-11.0928
큐	-11.0931
-19	-11.0937
득	-11.0938
토가	-11.0938
졌	-11.0941
꽃	-11.0943
위원	-11.0944
곤	-11.0946
라이브튠	-11.0948
`	-11.0948
투어허	-11.0948
×	-11.0948
あ	-11.0948
죠	-11.0948
짝	-11.0948
박물관	-11.0949
▁항복하	-11.0951
햄	-11.0951
앤	-11.0953
뿐	-11.0954
냈	-11.0957
▁측면	-11.0958
더블	-11.0958
▁아르	-11.096
울	-11.0961
폭	-11.0961
이브	-11.0962
킬	-11.0965
소녀	-11.0967
폭력	-11.0973
놀이	-11.0973
정부는	-11.0974
받지	-11.0974
짐	-11.0979
목록	-11.0979
공원	-11.0979
윈	-11.098
완전	-11.098
▁i	-11.098
희극인	-11.098
타인	-11.0981
센터	-11.0982
charts	-11.0983
샘	-11.0983
天	-11.0983
흉	-11.0983
늘	-11.0984
TO	-11.0986
였다고	-11.0987
놓	-11.0993
▁듯	-11.0993
정부	-11.0994
빛	-11.0995
토모	-11.0997
합니다	-11.0997
참	-11.0998
Mii	-11.0998
노승우	-11.0998
글	-11.0999
AN	-11.0999
하늘	-11.0999
나게	-11.1003
솔	-11.1004
력을	-11.1007
eu	-11.1007
령을	-11.1007
규모	-11.1008
대학원	-11.101
논	-11.1011
▁받게	-11.1012
태평양	-11.1012
#	-11.1012
ur	-11.1012
엘	-11.1012
리스트	-11.1012
바리	-11.1013
목적	-11.1014
작업	-11.1015
도서관은	-11.1016
왕립	-11.1016
꽃은	-11.1018
홈런	-11.1018
곧	-11.1021
log	-11.1021
선거에서	-11.1022
▁43,	-11.1022
교육구	-11.1024
필드	-11.1025
연합	-11.1026
—	-11.1027
여명의	-11.1027
그날	-11.1028
앞	-11.1029
건설	-11.1029
홈	-11.103
돌	-11.103
러시아	-11.103
환경	-11.103
뒤	-11.1031
경기장	-11.1033
프랑스	-11.1034
▁찾	-11.1034
[2]	-11.1035
FC	-11.1038
항공	-11.1039
축구	-11.1042
모르	-11.1043
자료	-11.1044
준비	-11.1046
분석	-11.1047
표준	-11.1048
부와	-11.1048
뿐만	-11.105
방법은	-11.1051
▁태양	-11.1056
▁책임	-11.1057
시절	-11.1057
우선	-11.1061
해방	-11.1061
것을	-11.1061
제작	-11.1062
출하기	-11.1062
MC	-11.1063
광장	-11.1063
▁풀	-11.1064
영국	-11.1064
▁61.3	-11.1067
명일까	-11.1073
▁말이	-11.1075
전투	-11.1076
국제	-11.1082
정치	-11.1084
88",	-11.1086
개혁	-11.1086
▁조약	-11.1088
했을	-11.1093
차원	-11.1094
노선	-11.1097
나무	-11.1099
경제	-11.1101
나카	-11.1101
▁115	-11.1106
▁기념	-11.1107
ie	-11.1108
웠	-11.1111
교구	-11.1116
원제	-11.112
골을	-11.1121
부르	-11.1123
▁소속이	-11.1124
대부	-11.1132
▁싶	-11.1136
▁히틀러	-11.1137
자키	-11.114
그리	-11.1143
ill	-11.1149
0.9	-11.1153
협의	-11.1153
▁이재	-11.1155
2007	-11.1156
쟁이	-11.1159
dy	-11.1159
▁Wh	-11.116
감이	-11.1168
▁대원	-11.1168
2012	-11.1173
▁백성	-11.1174
▁대기	-11.1178
▁왕비	-11.1179
플레	-11.1181
비스	-11.1182
▁등장인물	-11.1185
▁과학	-11.1186
▁소문	-11.1186
▁난카이	-11.1187
▁타입	-11.1187
▁4,6	-11.1191
▁식물	-11.1196
▁나폴레옹	-11.1196
▁미네소타	-11.1196
▁잉글랜드	-11.1196
▁짝패	-11.1205
율	-11.1206
9.8	-11.1209
▁모양	-11.1211
받았	-11.1211
▁드러	-11.1211
▁Fo	-11.1211
▁통상	-11.1212
▁기관차	-11.1213
자치	-11.1217
이치로	-11.1219
▁늘어	-11.122
리그에서	-11.122
.2)	-11.1228
▁불교	-11.1228
▁목표	-11.1229
▁각종	-11.123
VR	-11.123
NG	-11.1232
▁밖에	-11.1233
2015	-11.1233
▁떠나	-11.1236
▁구배라	-11.1236
1997	-11.1237
▁기관	-11.1239
▁프로이트	-11.124
▁건축	-11.1241
▁마쓰	-11.1242
▁펠리페	-11.1243
▁기초	-11.1249
▁득표수	-11.1249
누스	-11.125
▁요건	-11.125
쳤	-11.1251
▁어디로	-11.1254
개발	-11.1255
▁움직임	-11.1255
▁안정성	-11.1255
▁얼굴	-11.1255
▁형용사	-11.1256
았	-11.1256
▁종족	-11.1257
IM	-11.1257
▁합병	-11.1257
▁염색체	-11.1257
윌	-11.1258
소와	-11.1258
▁노벨	-11.126
▁꽃가루	-11.1266
라면	-11.1268
▁쇼뱅	-11.1268
▁패배	-11.1269
기위해	-11.1269
173	-11.1269
▁근거	-11.127
용으로	-11.127
가능하다	-11.127
can	-11.127
▁에클스턴	-11.1271
▁일제	-11.1271
▁마틴	-11.1272
▁심판	-11.1273
▁학습	-11.1273
▁계열	-11.1274
우리	-11.1274
▁히데오	-11.1275
마치	-11.1275
▁진주	-11.1277
ll	-11.1277
▁아시안게임	-11.1277
▁식사	-11.1278
▁동헌	-11.1279
탈리아	-11.128
▁총선에서	-11.1281
▁유료	-11.1281
tch	-11.1281
▁코스	-11.1281
▁반란	-11.1281
▁도움	-11.1281
▁아랍어	-11.1282
뢰	-11.1283
▁송진	-11.1283
▁계산	-11.1284
▁이행불능	-11.1286
▁자루	-11.1287
▁닌자	-11.1288
RI	-11.1289
▁획득	-11.1289
▁87	-11.1289
할때	-11.129
▁어려워	-11.129
▁오슈	-11.129
등에	-11.1291
▁완벽	-11.1292
륙	-11.1293
▁바탕	-11.1293
un	-11.1295
▁요청	-11.1296
권총	-11.1296
▁유림	-11.1297
▁태도	-11.1298
\	-11.1299
▁지켜	-11.1299
젤	-11.13
▁강릉	-11.13
럭	-11.13
랭	-11.13
▁탄산	-11.1301
▁맞이	-11.1301
▁8601	-11.1301
▁올랐	-11.1302
▁헤엄	-11.1302
▁숨겨	-11.1302
▁오리온	-11.1302
룬	-11.1303
였지만	-11.1303
▁고통	-11.1303
▁비슷하	-11.1304
사우루스	-11.1304
둑	-11.1304
쇄	-11.1304
▁웨이	-11.1304
▁강력	-11.1304
▁높았	-11.1305
▁원작	-11.1305
탓	-11.1305
퀘	-11.1305
▁지역별	-11.1305
▁맥	-11.1305
마력	-11.1305
쥐	-11.1305
▁파악	-11.1305
內	-11.1305
政	-11.1305
ら	-11.1306
▁머물	-11.1306
タ	-11.1306
▁펼쳤	-11.1306
▁올스타	-11.1306
핍	-11.1306
촉	-11.1306
댄	-11.1306
▁포켓몬	-11.1306
梁	-11.1306
二	-11.1306
ム	-11.1306
別	-11.1306
地	-11.1306
音	-11.1306
▁쿼터	-11.1306
空	-11.1306
흘	-11.1306
а	-11.1306
を	-11.1306
ャ	-11.1306
ュ	-11.1306
常	-11.1306
若	-11.1306
self	-11.1306
で	-11.1306
原	-11.1306
樂	-11.1306
겔	-11.1306
릿	-11.1306
テ	-11.1306
ロ	-11.1306
多	-11.1306
慶	-11.1306
波	-11.1306
熙	-11.1306
自	-11.1306
興	-11.1306
렛	-11.1306
▁978-4-08-8700	-11.1306
洪	-11.1306
▁978-4-08-8701	-11.1306
▁가브리엘라	-11.1306
▁남사당	-11.1306
▁손해배상	-11.1306
▁알렉산더	-11.1306
孝	-11.1306
柳	-11.1306
秋	-11.1306
랏	-11.1306
퉁	-11.1306
International	-11.1307
Kim	-11.1307
Teyon	-11.1307
Trinity	-11.1307
dependent	-11.1307
ː	-11.1307
ски	-11.1307
▁(1991)	-11.1307
▁75.00%	-11.1307
▁Black	-11.1307
▁Chapter	-11.1307
▁FACTORY	-11.1307
▁Heart	-11.1307
▁Letter	-11.1307
▁Moon	-11.1307
▁Nikoli	-11.1307
▁Perfect	-11.1307
▁RKO	-11.1307
▁SMAP	-11.1307
▁TNmS	-11.1307
▁World	-11.1307
▁العربية	-11.1307
▁−1	-11.1307
▁걸그룹	-11.1307
▁게오르크	-11.1307
▁경상북도	-11.1307
▁계금취견	-11.1307
▁고래회충	-11.1307
▁곳으로	-11.1307
▁관구장좌	-11.1307
▁관용차를	-11.1307
▁국가문화유산포털	-11.1307
▁권병준	-11.1307
▁급진적인	-11.1307
▁기계체조	-11.1307
▁기획관리실	-11.1307
▁깊은	-11.1307
▁깨달음	-11.1307
▁꿈의	-11.1307
▁나카카와치	-11.1307
▁남아있는	-11.1307
▁남아프리카	-11.1307
▁낳았	-11.1307
▁너하나만	-11.1307
▁넥센	-11.1307
▁노르웨이	-11.1307
▁노스웨스트	-11.1307
▁논스톱	-11.1307
▁눈코입	-11.1307
▁느낀	-11.1307
▁데이빗	-11.1307
▁돕는	-11.1307
▁떠오르	-11.1307
▁또치	-11.1307
▁라파엘라	-11.1307
▁로베스피에르는	-11.1307
▁리볼버	-11.1307
▁마누엘	-11.1307
▁마사후미	-11.1307
▁말장난	-11.1307
▁맞은	-11.1307
▁맞추	-11.1307
▁맡고	-11.1307
▁맨해튼	-11.1307
▁머큐리	-11.1307
▁몇몇	-11.1307
▁목숨을	-11.1307
▁몸의	-11.1307
▁무한도전	-11.1307
▁미시시피	-11.1307
▁미카엘라	-11.1307
▁미하엘	-11.1307
▁민주통합당	-11.1307
▁밖의	-11.1307
▁배드민턴	-11.1307
▁배차간격은	-11.1307
▁번뇌	-11.1307
▁별주부는	-11.1307
▁분광형	-11.1307
▁불러일으	-11.1307
▁붉은	-11.1307
▁브레이브스	-11.1307
▁브롱코스	-11.1307
▁블루윙즈	-11.1307
▁비권리자	-11.1307
▁비슷한	-11.1307
▁빅뱅	-11.1307
▁사범대학	-11.1307
▁섀클턴	-11.1307
▁서있다	-11.1307
▁속해있	-11.1307
▁수아레즈	-11.1307
▁슈퍼피시	-11.1307
▁스웨덴	-11.1307
▁스탠리	-11.1307
▁시티즌	-11.1307
▁쌍봉낙타	-11.1307
▁쓴다	-11.1307
▁아녜스	-11.1307
▁안티오키아	-11.1307
▁않기	-11.1307
▁암흑	-11.1307
▁앵커	-11.1307
▁얻고	-11.1307
▁얻는	-11.1307
▁얻어	-11.1307
▁없었던	-11.1307
▁역전재판	-11.1307
▁염흥방	-11.1307
▁영등포구	-11.1307
▁오승윤	-11.1307
▁오펜시브	-11.1307
▁옮긴	-11.1307
▁외인구단	-11.1307
▁요제프	-11.1307
▁요코하마	-11.1307
▁우니베르시다드	-11.1307
▁우즈베키스탄	-11.1307
▁움직인	-11.1307
▁움푹	-11.1307
▁웬디	-11.1307
▁유니세프	-11.1307
▁유니콘	-11.1307
▁유신견	-11.1307
▁윤명준	-11.1307
▁음절초	-11.1307
▁이곳에	-11.1307
▁이끌고	-11.1307
▁이끌던	-11.1307
▁이끌었	-11.1307
▁인터내셔널	-11.1307
▁일렉트릭	-11.1307
▁자궁경부	-11.1307
▁자칫	-11.1307
▁정이대장군	-11.1307
▁주계열성	-11.1307
▁줄어들었	-11.1307
▁진오기굿의	-11.1307
▁채권성립의	-11.1307
▁채무불이행	-11.1307
▁초계함	-11.1307
▁출입문	-11.1307
▁충청남도	-11.1307
▁치둑송첸	-11.1307
▁캐스팅	-11.1307
▁캘거리	-11.1307
▁컨셉트	-11.1307
▁코믹	-11.1307
▁코펜하겐	-11.1307
▁콜롬비아	-11.1307
▁파푸아	-11.1307
▁퍼거슨	-11.1307
▁평안북도	-11.1307
▁피렌체	-11.1307
▁피에몬테	-11.1307
▁픽처스	-11.1307
▁필리프	-11.1307
▁한국프로야구	-11.1307
▁해시태그	-11.1307
▁핵자기	-11.1307
▁핼리팩스	-11.1307
▁혼란에	-11.1307
▁황정음은	-11.1307
▁흔적	-11.1307
▁히데노리	-11.1307
▁히카루	-11.1307
▁힘으로	-11.1307
▁힘은	-11.1307
▁힘을	-11.1307
わ	-11.1307
儀	-11.1307
公	-11.1307
加	-11.1307
后	-11.1307
因	-11.1307
國	-11.1307
場	-11.1307
夢	-11.1307
官	-11.1307
定	-11.1307
峴	-11.1307
慧	-11.1307
戒禁取見	-11.1307
所	-11.1307
方	-11.1307
有身見	-11.1307
死	-11.1307
澤	-11.1307
福	-11.1307
章	-11.1307
芳賀健太郎	-11.1307
衛	-11.1307
言	-11.1307
越	-11.1307
達	-11.1307
都督	-11.1307
間	-11.1307
風	-11.1307
館	-11.1307
꼴	-11.1307
뉜	-11.1307
뉴브런즈윅주	-11.1307
달러짜리	-11.1307
덤	-11.1307
랄	-11.1307
뤘	-11.1307
륜구동	-11.1307
방송총국	-11.1307
벼	-11.1307
숏	-11.1307
스럽게	-11.1307
자루씩	-11.1307
쯤	-11.1307
캐피탈	-11.1307
캠	-11.1307
컷	-11.1307
쿤	-11.1307
텍	-11.1307
호랑나비	-11.1307
Dexys	-11.1307
▁기득권	-11.1307
▁김교식	-11.1307
▁나들목	-11.1307
▁느낌	-11.1307
▁무슬림	-11.1307
▁벗어	-11.1307
▁벚꽃	-11.1307
▁비엔나	-11.1307
▁에인절스	-11.1307
▁오키나와	-11.1307
▁전기요금	-11.1307
▁쫓겨	-11.1307
롄	-11.1307
샹	-11.1307
찌	-11.1307
▁Charts	-11.1307
▁HLKY	-11.1307
▁대진대학교	-11.1307
▁드디어	-11.1307
▁마라톤	-11.1307
▁몬데시	-11.1307
▁무조건	-11.1307
▁박형준	-11.1307
▁부르주아	-11.1307
▁붙였	-11.1307
▁사부님	-11.1307
▁사쿠라	-11.1307
▁서경덕	-11.1307
▁소피아	-11.1307
▁시네마	-11.1307
▁알려져있	-11.1307
▁알려지게	-11.1307
▁야마토지	-11.1307
▁에스테르	-11.1307
▁에어로스미스	-11.1307
▁여동생	-11.1307
▁외무부	-11.1307
▁용왕님	-11.1307
▁월미산	-11.1307
▁유니온	-11.1307
▁이른바	-11.1307
▁카미유	-11.1307
▁카타리나	-11.1307
▁커다란	-11.1307
▁타우포	-11.1307
▁태권도	-11.1307
▁함안군	-11.1307
じ	-11.1307
任	-11.1307
島	-11.1307
永	-11.1307
法	-11.1307
涅	-11.1307
淸	-11.1307
素	-11.1307
許	-11.1307
雄	-11.1307
곰	-11.1307
싹	-11.1307
엠	-11.1307
▁2007-08	-11.1307
▁[71]	-11.1307
▁livetune	-11.1307
▁김인혜	-11.1307
▁링컨	-11.1307
▁멋진	-11.1307
▁분리형	-11.1307
▁성간물질	-11.1307
▁일반회계	-11.1307
▁친선경기	-11.1307
▁코나미	-11.1307
▁탄압	-11.1307
▁후지와라	-11.1307
▁"42"}]}	-11.1307
▁$1	-11.1307
▁Animation	-11.1307
▁HLKT	-11.1307
▁런칭	-11.1307
▁야스히라	-11.1307
▁유시민	-11.1307
▁푸에르	-11.1307
人	-11.1307
寂	-11.1307
富	-11.1307
寒	-11.1307
市	-11.1307
昭	-11.1307
武	-11.1307
泉	-11.1307
泰	-11.1307
相	-11.1307
깔	-11.1307
▁Rose	-11.1307
▁교외선	-11.1307
▁다이빙	-11.1307
▁다이쇼	-11.1307
▁도메인	-11.1307
▁문재인	-11.1307
▁스테파	-11.1307
▁억압	-11.1307
▁외국인	-11.1307
▁작위가	-11.1307
▁첼시	-11.1307
▁KCC	-11.1307
▁Time	-11.1307
▁물체를	-11.1307
▁브레이크	-11.1307
▁주말특별기획	-11.1307
▁총대주교	-11.1307
カ	-11.1307
全	-11.1307
反切	-11.1307
끔	-11.1307
▁"11"}]}	-11.1307
▁나쁜짓	-11.1307
▁농어촌버스	-11.1307
▁수차례	-11.1307
▁슈페어	-11.1307
▁역총의	-11.1307
▁크리켓	-11.1307
▁활동하다가	-11.1307
軍	-11.1307
노미야	-11.1307
프리트	-11.1307
▁서천군	-11.1307
▁청동기	-11.1307
▁[22]	-11.1307
▁덴버	-11.1307
▁스테인리스	-11.1307
▁간호사	-11.1307
▁호랑이	-11.1307
▁강점기	-11.1307
▁고탄다	-11.1307
▁국민의당	-11.1307
▁동절기	-11.1307
▁바오로	-11.1307
▁이명박	-11.1307
▁하절기	-11.1307
저축은행	-11.1307
vision	-11.1307
▁Girls	-11.1307
▁고등학생	-11.1307
▁김평일	-11.1307
▁다케유키	-11.1307
▁불분명	-11.1307
▁정차하는	-11.1307
오페라	-11.1307
▁May	-11.1307
▁그만두	-11.1307
▁어느정도	-11.1307
▁역임하고	-11.1307
▁"40"}]}	-11.1307
▁[26]	-11.1307
▁우타다	-11.1307
▁타이거즈	-11.1307
스트리트	-11.1307
▁거짓말	-11.1307
▁외국에	-11.1307
.31%	-11.1307
uŋ	-11.1307
▁이르기까지	-11.1307
▁조식은	-11.1307
셰이크	-11.1307
▁원내대표	-11.1307
▁자유민주연합	-11.1307
▁북로디지아	-11.1307
▁요괴	-11.1307
▁주목을	-11.1307
▁경유지	-11.1307
▁권세은	-11.1307
자양동	-11.1307
ノー	-11.1307
▁김소은	-11.1307
▁통일소녀	-11.1307
▁나카무라	-11.1307
▁나타났	-11.1307
하겠다는	-11.1307
홍보대사	-11.1307
▁아스널	-11.1307
▁교황직속	-11.1307
▁간사이	-11.1307
▁유로파리그	-11.1307
▁18.3%	-11.1307
▁겹쳐	-11.1307
がる	-11.1307
▁젖혀	-11.1307
▁도고시	-11.1307
▁중요하게	-11.1307
▁헤라클레스	-11.1307
▁역임한	-11.1307
▁잘못	-11.1307
▁혜종	-11.1307
▁벌어졌	-11.1307
▁콜걸	-11.1307
던지기	-11.1307
▁1.2.3	-11.1307
▁마나과	-11.1307
빛나라	-11.1307
▁"4"}]}	-11.1307
▁name	-11.1307
▁왕위에	-11.1307
宮	-11.1307
▁불만을	-11.1307
▁일종의	-11.1307
▁"3"}]}	-11.1307
▁마쓰모토	-11.1307
사를	-11.1307
의존하여	-11.1307
▁날아가	-11.1307
▁세이커스	-11.1307
▁이라크	-11.1307
▁보여주는	-11.1307
▁폐쇄	-11.1307
▁월요일	-11.1307
▁포인트	-11.1307
▁증폭	-11.1307
▁함부르크	-11.1307
▁불평등	-11.1307
Mobile	-11.1307
▁용인죽전	-11.1307
▁조치	-11.1307
▁육지로	-11.1307
▁주아부	-11.1307
▁지자체	-11.1307
▁월간조선	-11.1307
낭월동	-11.1307
▁지분의	-11.1307
▁KBO	-11.1307
▁인디언	-11.1307
▁수령은	-11.1307
▁School	-11.1307
▁젖힌	-11.1307
▁충분하	-11.1307
▁방향을	-11.1307
▁어워즈	-11.1307
▁총괄	-11.1307
land	-11.1307
▁김태욱	-11.1307
▁다스렸	-11.1307
▁소멸	-11.1307
▁오클랜드	-11.1307
▁수준이	-11.1307
▁공성전	-11.1307
▁무리뉴	-11.1307
▁효력이	-11.1307
▁꼬리	-11.1307
▁임금을	-11.1307
▁부탁	-11.1307
가오동	-11.1307
되거나	-11.1307
uch	-11.1307
▁법률관계에	-11.1307
▁춘추	-11.1307
▁원자력	-11.1307
▁교잡	-11.1307
倉	-11.1307
▁몰입	-11.1308
▁삼각형	-11.1308
▁덕분에	-11.1308
▁철저하게	-11.1308
▁혼마	-11.1308
▁보냈으나	-11.1308
▁영웅담	-11.1308
▁안타를	-11.1308
▁크리스	-11.1308
▁Yo	-11.1308
▁결합	-11.1308
▁Chae	-11.1308
▁형질을	-11.1308
▁필름	-11.1308
▁음향	-11.1308
▁조선총독부	-11.1308
우월주의	-11.1308
▁감염	-11.1308
▁이외에	-11.1308
▁4.3%	-11.1308
▁복귀	-11.1308
▁우익수	-11.1308
▁자세히	-11.1308
▁실비아	-11.1308
しさ	-11.1308
▁포경선	-11.1308
▁억제	-11.1308
박쥐	-11.1308
▁못하도록	-11.1308
▁연합군을	-11.1308
▁메디치	-11.1308
▁인원수는	-11.1308
▁필수적	-11.1308
▁타나카	-11.1308
▁여전히	-11.1308
▁치타스	-11.1308
=239	-11.1308
▁숭배	-11.1308
▁놓	-11.1308
▁엄청나게	-11.1308
▁카타르	-11.1308
▁값을	-11.1308
▁빠르게	-11.1308
▁만들어낸	-11.1308
▁동일시	-11.1308
▁요시코	-11.1308
답게	-11.1308
▁습격	-11.1308
▁스즈키	-11.1308
▁되었으나	-11.1308
▁입학했	-11.1308
▁레코드	-11.1308
▁Fly	-11.1308
▁4.2%	-11.1309
▁동일한	-11.1309
▁동아시아	-11.1309
▁베어스	-11.1309
▁앙리	-11.1309
▁3.4%	-11.1309
▁권한을	-11.1309
▁일곱	-11.1309
▁좌석	-11.1309
▁연합군의	-11.1309
▁ONE	-11.1309
▁봉황	-11.1309
▁요동이	-11.1309
▁TBC	-11.1309
▁오빠	-11.1309
▁영역의	-11.1309
▁놓여	-11.1309
>2011	-11.1309
▁농림	-11.1309
▁Every	-11.1309
▁택시	-11.1309
▁탄도	-11.1309
▁김희선	-11.131
▁반입	-11.131
▁쉬운	-11.131
▁울려	-11.131
▁잇는	-11.131
▁녹음	-11.131
▁네팔	-11.131
▁죠호	-11.131
▁성폭력	-11.131
▁플루	-11.131
▁크리스티	-11.131
▁독점	-11.131
▁계기로	-11.131
▁이지스	-11.131
▁파이터	-11.131
▁지리적	-11.131
▁계속해서	-11.131
▁거부했	-11.131
▁관습	-11.131
▁특별히	-11.131
▁복속	-11.131
▁민간인	-11.131
▁최악의	-11.131
▁다윈	-11.131
ker	-11.131
▁지속적으로	-11.131
▁해독하기	-11.131
▁충전소	-11.131
▁포항급	-11.131
▁국민대학교	-11.131
▁혼인	-11.131
▁국민회의	-11.131
▁침식	-11.1311
▁부분적으로	-11.1311
▁관직	-11.1311
▁평촌	-11.1311
▁전통적인	-11.1311
▁복잡한	-11.1311
▁심각한	-11.1311
▁적합한	-11.1311
▁활발한	-11.1311
ion	-11.1311
▁쳐들어와	-11.1311
21",	-11.1311
▁농민	-11.1311
▁숨겨진	-11.1311
▁쌓아	-11.1311
▁신뢰	-11.1311
▁혈액형	-11.1311
▁묘소	-11.1311
▁많았던	-11.1311
▁식량	-11.1311
겠다고	-11.1311
▁EP	-11.1311
▁귀족원	-11.1311
▁해결하기	-11.1311
▁이인임	-11.1312
▁Jr	-11.1312
▁학업	-11.1312
▁참석	-11.1312
▁설계	-11.1312
▁오사키	-11.1312
▁왕족과	-11.1312
▁수도사단	-11.1312
▁보잉	-11.1312
▁데일리	-11.1312
▁평창	-11.1312
▁복역	-11.1312
▁피아나	-11.1312
▁외교부	-11.1312
▁학위를	-11.1312
▁대교구	-11.1312
▁잠재	-11.1312
▁김태형	-11.1312
=243	-11.1312
▁나가노	-11.1312
▁료우	-11.1312
▁시설들이	-11.1312
▁계절	-11.1312
▁탄산수	-11.1312
▁표본	-11.1312
▁강조하는	-11.1312
되었을때	-11.1312
▁법정동	-11.1312
.08%	-11.1313
▁부당한	-11.1313
▁들어갈	-11.1313
▁평론	-11.1313
죽전	-11.1313
▁22:00	-11.1313
▁마이크	-11.1313
▁본편	-11.1313
▁추락	-11.1313
▁아무리	-11.1313
▁입력	-11.1313
시킬	-11.1313
천삼거리	-11.1313
▁생기게	-11.1313
▁GO	-11.1313
▁알려진	-11.1314
▁폭격기	-11.1314
보기	-11.1314
▁부채	-11.1314
▁터미	-11.1314
릭스	-11.1314
▁치환	-11.1314
▁경향	-11.1314
▁매직	-11.1314
▁황색	-11.1314
▁패턴	-11.1314
▁부정적	-11.1314
▁처형	-11.1314
▁작동	-11.1314
TVE	-11.1314
▁부이사	-11.1314
▁인정하지	-11.1314
▁남긴	-11.1314
▁크루	-11.1314
▁에밀	-11.1314
▁뒤집어	-11.1314
▁공식적으로	-11.1314
▁응원	-11.1315
UN	-11.1315
▁아가타	-11.1315
▁동원된	-11.1315
▁생생	-11.1315
▁오나라	-11.1315
-00266	-11.1315
▁주둔	-11.1315
▁놀라	-11.1315
두근	-11.1315
▁고려대학교	-11.1315
▁왕릉은	-11.1315
▁평균자책점은	-11.1315
▁최경환은	-11.1315
▁지브란은	-11.1315
▁항소	-11.1315
▁테러	-11.1315
▁용암	-11.1315
▁작화	-11.1316
▁루즈	-11.1316
▁위헌	-11.1316
▁'#	-11.1316
▁여러가지	-11.1316
▁결성된	-11.1316
▁협력하여	-11.1316
▁파장은	-11.1316
▁가득	-11.1316
▁측정하는	-11.1316
▁백성들이	-11.1316
▁제공하는	-11.1316
▁바라보	-11.1316
▁단순	-11.1316
▁자음은	-11.1316
▁숙부	-11.1317
▁다음날	-11.1317
▁의뢰인	-11.1317
▁이동통신사인	-11.1317
▁존슨	-11.1317
▁포함되어	-11.1317
ium	-11.1317
▁초록	-11.1317
▁홍국영을	-11.1317
▁마쓰리	-11.1317
▁절차	-11.1317
▁질소	-11.1317
▁방문해	-11.1317
▁사카이	-11.1317
▁스피	-11.1317
▁포함하여	-11.1317
▁적송	-11.1317
▁미이라	-11.1318
▁거행	-11.1318
▁단행	-11.1318
▁한글	-11.1318
▁골드	-11.1318
▁개그맨으로	-11.1318
▁오리온스	-11.1318
▁능주	-11.1318
ky	-11.1318
kar	-11.1318
▁공립	-11.1318
▁공식적인	-11.1318
-00370	-11.1318
▁오타와	-11.1319
▁부임한	-11.1319
▁히로시	-11.1319
▁포함하고	-11.1319
▁이행지체와	-11.1319
▁배열	-11.1319
▁경찰관	-11.1319
▁얼마일까	-11.1319
▁향하여	-11.1319
▁비행기	-11.1319
▁완전한	-11.1319
▁증산	-11.1319
▁남녀	-11.1319
▁올라갔다	-11.1319
▁같	-11.1319
▁백작	-11.1319
6-4	-11.1319
▁창간	-11.1319
▁대지를	-11.1319
▁협회	-11.1319
▁(1996	-11.132
▁남북	-11.132
▁기획사	-11.132
으니	-11.132
▁영남	-11.132
▁회원	-11.132
Tell	-11.132
▁천체	-11.132
▁7001	-11.132
▁위반	-11.132
73",	-11.132
▁당주	-11.132
▁관찰하는	-11.132
▁심청	-11.132
inst	-11.1321
▁윈도	-11.1321
▁후궁	-11.1321
▁히데히라는	-11.1321
▁국방부는	-11.1321
▁급성	-11.1321
▁거점	-11.1321
▁할머니는	-11.1321
▁복수형	-11.1321
▁않아서	-11.1321
▁요코	-11.1321
▁당선자	-11.1321
ies	-11.1321
▁건강	-11.1321
▁세번째	-11.1321
▁일본국정부는	-11.1321
▁종영	-11.1321
ian	-11.1321
▁5.1	-11.1322
▁강진군수	-11.1322
태후	-11.1322
▁토대로	-11.1322
▁피난	-11.1322
▁데뷔하였으며	-11.1322
▁그것을	-11.1322
▁17.7%	-11.1322
▁부모님	-11.1322
▁착지	-11.1322
IV	-11.1322
▁포함하는	-11.1322
▁측에	-11.1322
776	-11.1323
▁구조적	-11.1323
▁찾지	-11.1323
▁수록된	-11.1323
▁플	-11.1323
▁가축	-11.1324
▁그것이	-11.1324
정수	-11.1324
▁견인	-11.1324
혜정	-11.1324
▁토번	-11.1324
인용	-11.1324
▁진실	-11.1324
▁불리는	-11.1324
▁.38	-11.1324
▁상징하는	-11.1324
▁태조	-11.1324
▁사람으로서	-11.1324
▁이로써	-11.1324
▁호평	-11.1324
▁비록	-11.1324
▁77	-11.1324
라몬	-11.1324
역학	-11.1324
▁복구	-11.1325
바퀴	-11.1325
▁모리스	-11.1325
▁닌자도	-11.1325
▁오류	-11.1325
▁코파	-11.1325
▁관중	-11.1325
▁바탕으로	-11.1325
▁불균형	-11.1325
▁호남	-11.1325
▁모양으로	-11.1325
▁선정된	-11.1325
▁순서	-11.1325
스테이션	-11.1325
▁반발	-11.1325
▁현장	-11.1325
▁휴전	-11.1325
▁부르게	-11.1326
▁자금	-11.1326
▁있었기에	-11.1326
▁양반	-11.1326
▁유력	-11.1326
▁홍보	-11.1326
▁Age	-11.1326
▁무안군	-11.1326
▁높게	-11.1326
▁천재	-11.1326
▁시청자	-11.1326
▁요청한	-11.1326
▁TC	-11.1326
▁리플	-11.1327
▁추산	-11.1327
▁화집	-11.1327
▁부천시	-11.1327
즈키	-11.1327
▁안동시	-11.1327
▁처음부터	-11.1327
▁김준	-11.1327
▁참여해	-11.1327
▁따서	-11.1328
▁부친	-11.1328
▁점포	-11.1328
▁당초	-11.1328
▁BBC	-11.1328
▁고등계	-11.1328
▁삼국지	-11.1329
▁관아	-11.1329
▁칼라	-11.1329
▁요시쓰네를	-11.1329
▁치료를	-11.1329
▁은퇴를	-11.1329
▁지혜	-11.1329
▁한나라	-11.1329
▁차체	-11.1329
▁목포	-11.1329
▁경연	-11.1329
▁서양	-11.1329
▁한카이	-11.133
▁레오	-11.133
▁자크	-11.133
▁1.9	-11.133
▁소송	-11.133
▁이론은	-11.133
▁박씨와	-11.133
▁레일건은	-11.133
▁리버풀은	-11.133
▁엡실론은	-11.133
▁강남	-11.133
먼트	-11.133
▁관해	-11.133
ir	-11.133
▁생선	-11.1331
▁않았기	-11.1331
▁예로는	-11.1331
▁모집	-11.1331
▁임무를	-11.1331
닉스	-11.1331
명인가	-11.1331
▁체조	-11.1331
▁범주	-11.1331
▁간디의	-11.1331
노브	-11.1331
▁너비의	-11.1331
메오	-11.1331
>8</	-11.1332
▁기록하며	-11.1332
▁김영	-11.1332
▁지난	-11.1332
▁분당	-11.1332
▁봉구	-11.1332
저우	-11.1332
▁임명제	-11.1333
▁갈라	-11.1333
▁기생	-11.1333
▁모건	-11.1333
▁천적	-11.1333
▁동작	-11.1333
58	-11.1333
▁일반적인	-11.1333
▁화재	-11.1333
▁남목	-11.1334
0.7	-11.1334
▁PC	-11.1334
하셨	-11.1334
▁실린	-11.1334
▁임신	-11.1334
▁도망	-11.1334
▁위험한	-11.1334
▁도약	-11.1334
으면서	-11.1334
▁유지하고	-11.1335
▁품종을	-11.1335
-00336	-11.1335
▁비난을	-11.1335
▁교토	-11.1335
▁외교	-11.1335
▁원더	-11.1335
▁체인	-11.1336
▁신촌	-11.1336
▁악화	-11.1336
▁자산	-11.1336
▁아시안게임에서	-11.1336
▁사용하기	-11.1336
▁표현할	-11.1336
▁유지할	-11.1336
▁주력	-11.1337
▁장려	-11.1337
▁소집	-11.1337
▁거미	-11.1337
▁지배	-11.1337
▁생성	-11.1337
▁언제부터	-11.1337
▁애비	-11.1338
▁배포	-11.1338
▁어떤것이	-11.1338
-0025	-11.1338
루시아	-11.1338
Cell	-11.1338
▁강수량이	-11.1338
코프	-11.1338
▁선포하였	-11.1338
ter	-11.1338
▁Nu	-11.1338
▁능력을	-11.1338
프로	-11.1339
▁오슈로	-11.1339
▁기초로	-11.1339
▁관하여	-11.1339
▁복합	-11.1339
▁적어도	-11.1339
▁무안	-11.1339
▁대해서도	-11.1339
▁전문가들이	-11.1339
킬로	-11.1339
▁이용해서	-11.134
카르	-11.134
▁혈맹과	-11.134
▁고급	-11.134
▁직선	-11.134
▁걸어	-11.134
▁구암	-11.1341
▁소생	-11.1341
-75	-11.1341
머스	-11.1341
▁측정	-11.1341
▁조건으로	-11.1341
▁요시다	-11.1341
▁유발	-11.1342
▁위일까	-11.1342
▁발견되어	-11.1342
▁서브	-11.1342
▁피신	-11.1343
▁소프트웨어인	-11.1343
▁무려	-11.1343
▁메이지	-11.1343
▁석사	-11.1343
▁보이며	-11.1343
▁패배를	-11.1343
더니	-11.1343
▁모여	-11.1343
▁용호	-11.1344
▁우유가	-11.1344
▁로버츠가	-11.1344
▁설도	-11.1344
▁화석	-11.1344
▁실용	-11.1344
▁견해	-11.1344
▁Con	-11.1345
승현	-11.1345
▁쇼뱅은	-11.1345
▁시카고	-11.1345
▁정원은	-11.1345
▁사임	-11.1345
▁뮤는	-11.1346
▁로버츠는	-11.1346
▁보관	-11.1346
▁출판사는	-11.1346
▁태양은	-11.1346
▁신곡	-11.1346
-00351	-11.1346
▁미영	-11.1346
▁경기수	-11.1346
▁케이트	-11.1346
ist	-11.1347
▁자신들의	-11.1347
▁학파	-11.1347
▁존재한다	-11.1348
▁사태	-11.1348
▁다루는	-11.1348
애플	-11.1348
▁존중	-11.1348
▁고발	-11.1348
▁돌보	-11.1349
▁단모음	-11.1349
▁임상	-11.1349
▁알마	-11.1349
▁불러	-11.1349
▁8000	-11.135
▁심장	-11.135
▁장안	-11.135
▁빠진	-11.135
▁부상	-11.135
▁전임	-11.135
▁봉사	-11.1351
▁여겨진	-11.1351
▁야구경기	-11.1351
▁조직된	-11.1351
▁선박	-11.1351
▁양파	-11.1351
타운	-11.1352
▁되는데	-11.1352
▁변경된	-11.1352
시키고	-11.1352
▁성별	-11.1352
개최국	-11.1353
▁매장	-11.1353
▁자루을	-11.1353
▁졸업하고	-11.1353
▁정권이	-11.1354
▁바보	-11.1354
▁때부터	-11.1354
▁개막	-11.1354
▁연기하는	-11.1354
백도	-11.1354
▁발성	-11.1355
추출	-11.1355
▁직선제	-11.1355
▁나간	-11.1355
▁다크	-11.1356
86",	-11.1356
▁유영	-11.1356
▁밑으로	-11.1356
3-2	-11.1356
▁8,1	-11.1356
▁비교	-11.1357
ful	-11.1357
▁중앙동	-11.1358
▁장식	-11.1358
▁메시지를	-11.1358
▁가온	-11.1358
커스	-11.1358
▁땅이	-11.1358
▁있음을	-11.1358
▁토요	-11.1358
▁요소를	-11.1359
▁재연	-11.1359
▁속해	-11.1359
▁대내	-11.1359
▁김종국	-11.1359
▁지연	-11.1359
▁인물들이	-11.136
노동	-11.136
▁오노	-11.136
▁시도가	-11.136
▁당신은	-11.136
▁호석은	-11.1361
▁지시를	-11.1361
▁국가대표팀은	-11.1362
▁미토	-11.1362
▁막기	-11.1362
▁연기자	-11.1362
▁장군이	-11.1362
▁4.0%	-11.1362
bc	-11.1362
-01-1	-11.1362
▁한때	-11.1362
▁일관	-11.1363
▁전차	-11.1363
NS	-11.1363
▁끝으로	-11.1363
▁아일랜드어	-11.1363
▁배경과	-11.1363
▁개관하였	-11.1363
▁구연	-11.1364
▁솔로	-11.1364
▁동반	-11.1364
▁차이를	-11.1364
▁가속	-11.1365
무역의	-11.1365
▁정유	-11.1365
▁도입된	-11.1365
▁행동으로	-11.1365
▁보도한	-11.1365
▁제외한	-11.1366
▁수명은	-11.1366
▁국왕이	-11.1366
▁조지아	-11.1367
▁노선에는	-11.1367
헤어스	-11.1367
▁취한	-11.1367
cha	-11.1368
▁전광	-11.1368
▁직전	-11.1368
▁Sta	-11.1368
▁사거리가	-11.1368
▁당주가	-11.1368
▁기초가	-11.1368
▁브레	-11.1368
▁에디	-11.1368
▁연산	-11.1368
!!!	-11.1369
▁이후에도	-11.1369
▁조치에	-11.1369
▁재미	-11.1369
▁23.4	-11.1369
▁제나라	-11.1369
훈이	-11.137
하려고	-11.137
행하는	-11.137
▁가즈	-11.137
▁대상으로	-11.137
▁마산	-11.1371
▁개봉일	-11.1371
▁펠리페는	-11.1371
▁루소	-11.1371
▁기관차는	-11.1371
▁도입되었다	-11.1371
▁특성	-11.1372
▁(2018)	-11.1372
▁교육법	-11.1372
▁가질	-11.1373
▁Si	-11.1373
▁판매를	-11.1373
▁지방선거에서	-11.1374
▁베니	-11.1374
▁그녀를	-11.1374
▁춘천시	-11.1374
▁국제공항의	-11.1374
▁양키스의	-11.1374
▁전력을	-11.1374
▁낭	-11.1374
▁1815	-11.1374
▁기니	-11.1374
▁신종	-11.1375
▁나빠	-11.1375
▁요셉의	-11.1375
▁대승	-11.1375
▁전통을	-11.1375
▁남쪽으로	-11.1375
▁쌓	-11.1375
▁세웠다	-11.1375
▁유래는	-11.1376
▁숭	-11.1376
▁버전으로	-11.1376
▁리슬링은	-11.1376
▁해산	-11.1376
숙한	-11.1377
▁선체	-11.1377
로즈	-11.1378
▁핑	-11.1378
마스터	-11.1378
▁살인	-11.1378
▁순으로	-11.1378
▁형사	-11.1378
▁To	-11.1378
▁미사	-11.1379
▁한쪽	-11.1379
78",	-11.1379
▁서정	-11.1379
▁제품	-11.1379
▁오오	-11.1379
▁지역구	-11.138
▁멸	-11.138
판을	-11.138
▁Z	-11.138
▁플래시	-11.138
▁맘	-11.138
▁틈	-11.138
▁레슬링	-11.138
▁붕	-11.138
▁플랫폼	-11.138
▁Two	-11.138
▁멜	-11.138
▁놈	-11.138
▁모욕죄	-11.138
▁부군면협의회	-11.138
▁키르기스스탄	-11.138
▁꾼	-11.138
▁럭비	-11.138
▁John	-11.138
▁워터	-11.138
▁따르	-11.138
▁다마	-11.138
수단이	-11.1381
▁새벽	-11.1381
▁주체	-11.1381
▁은용	-11.1381
▁보이고	-11.1381
▁먹이	-11.1381
▁증감	-11.1381
▁기념물	-11.1381
▁출처	-11.1381
▁운항	-11.1381
▁돌아온	-11.1382
▁희망	-11.1382
▁그리스어	-11.1382
▁체결	-11.1382
▁핑크	-11.1382
▁사토시	-11.1383
▁그런데	-11.1383
▁해적	-11.1383
▁커피	-11.1383
▁사운드트랙	-11.1383
바른	-11.1384
▁철수	-11.1384
▁[13]	-11.1385
▁경기수는	-11.1385
9.5	-11.1385
▁연대기	-11.1385
▁수다원과	-11.1385
▁보좌	-11.1385
▁상태에	-11.1385
▁테레	-11.1385
474	-11.1386
▁밀집	-11.1386
▁남원	-11.1386
▁소속팀	-11.1386
▁지하	-11.1386
▁강제	-11.1386
▁대공국	-11.1387
▁원산	-11.1387
▁무게를	-11.1387
▁기사를	-11.1387
▁시티	-11.1388
▁방송하였	-11.1388
▁단어를	-11.1388
▁합금	-11.1388
▁국보	-11.1389
▁중류	-11.1389
▁중력	-11.1389
▁마리오	-11.139
란드	-11.139
▁염장	-11.139
정리	-11.139
▁썼다	-11.139
▁3.0%	-11.1391
▁팔레	-11.1391
▁보수	-11.1391
▁반응을	-11.1391
▁개발한	-11.1391
▁근로	-11.1392
▁”	-11.1392
▁시모	-11.1392
▁발행	-11.1393
▁명문	-11.1393
▁처리	-11.1393
▁정원	-11.1393
▁후루	-11.1393
▁표기를	-11.1394
▁인간에게	-11.1394
▁우주선	-11.1395
▁퓨	-11.1396
▁나왔다	-11.1396
▁장소는	-11.1396
▁필요가	-11.1396
4.8	-11.1397
054	-11.1397
PA	-11.1397
▁화해	-11.1398
▁부진	-11.1399
art	-11.1399
▁동면	-11.1399
TM	-11.1399
▁먹는	-11.1399
▁승부	-11.14
▁포항시	-11.14
▁채권이	-11.14
▁패하고	-11.14
더스	-11.14
▁시절과	-11.1401
▁경력과	-11.1401
루수	-11.1401
▁선보	-11.1402
▁강등	-11.1402
▁살고	-11.1402
▁김선	-11.1402
▁스스로를	-11.1403
▁혁신	-11.1403
상현	-11.1403
▁의미로	-11.1404
▁북한이	-11.1404
▁대포	-11.1404
▁대치	-11.1404
▁주식	-11.1405
경찰청	-11.1406
▁부류	-11.1407
▁발음은	-11.1407
함과	-11.1407
▁고로는	-11.1408
ext	-11.1408
▁토큰을	-11.1409
▁서면	-11.141
▁환장	-11.141
▁운행하고	-11.1411
▁구역	-11.1411
귀신	-11.1411
▁수행하는	-11.1412
▁김구	-11.1412
▁승리한	-11.1413
듯이	-11.1413
▁캠퍼스	-11.1413
▁독립한	-11.1413
▁수익	-11.1414
천동	-11.1414
도중	-11.1414
▁테츠	-11.1415
였기	-11.1415
▁지위를	-11.1415
▁차례로	-11.1416
▁교육을	-11.1416
▁광고	-11.1416
▁준비를	-11.1417
▁작곡가	-11.1417
▁올라가	-11.1417
="	-11.1417
▁직책	-11.1417
▁사람들을	-11.1417
▁서비스를	-11.1417
▁드러나	-11.1418
876	-11.1418
▁나폴레옹의	-11.1418
▁미네소타의	-11.1418
▁잉글랜드의	-11.1418
▁장성	-11.1419
▁히틀러의	-11.1419
보다는	-11.1419
▁사제	-11.1421
▁팀인가	-11.1421
▁주장한	-11.1422
들만	-11.1422
▁구제	-11.1423
▁기계는	-11.1423
▁변화는	-11.1423
▁거기	-11.1423
▁선거구에서	-11.1424
▁일어났다	-11.1424
▁형태가	-11.1424
▁뜻의	-11.1424
▁육군은	-11.1424
▁자신을	-11.1425
▁상태가	-11.1425
▁실리	-11.1425
군단장	-11.1426
▁주오	-11.1426
▁0-1	-11.1427
▁문제로	-11.1427
▁(6)	-11.1427
▁변화가	-11.1427
▁탄핵을	-11.1428
▁증오	-11.1428
계에	-11.1429
▁아비	-11.1429
▁구조로	-11.1429
7-3	-11.1431
▁제헌	-11.1431
▁표명	-11.1431
▁조성	-11.1432
▁신원	-11.1432
▁조약이	-11.1432
▁열차는	-11.1433
▁출생지는	-11.1433
▁상우	-11.1433
▁이르는	-11.1434
▁발전소	-11.1436
▁수호자	-11.1436
54",	-11.1436
▁때에도	-11.1437
▁포위	-11.1437
회전	-11.1437
▁내장	-11.1438
▁파라지	-11.1438
▁마음을	-11.1438
남으로	-11.1439
▁줄로	-11.1439
▁여론	-11.1439
▁보나	-11.1439
열한	-11.1439
▁대우	-11.1439
92",	-11.144
▁우승자	-11.144
▁원시	-11.144
rem	-11.1441
▁각본가	-11.1442
▁예술가	-11.1442
▁써	-11.1442
▁대법원	-11.1442
▁그려	-11.1442
MY	-11.1442
▁압	-11.1443
▁나이로	-11.1444
빈이	-11.1444
▁일시	-11.1444
▁끝나	-11.1444
▁면에서	-11.1444
▁자살	-11.1445
계암	-11.1446
만원을	-11.1446
팀의	-11.1446
넥스	-11.1446
▁없음을	-11.1447
레이크	-11.1447
▁동쪽	-11.1448
▁사회를	-11.1448
▁야구부	-11.1449
▁망명	-11.1449
46",	-11.1449
▁항일	-11.145
▁꽃이	-11.145
▁재위	-11.1451
▁축출	-11.1451
487	-11.1451
▁기요	-11.1452
▁적대	-11.1452
▁것이라는	-11.1452
▁현지	-11.1454
▁바르	-11.1454
▁공천	-11.1454
▁구조를	-11.1455
우스는	-11.1455
▁신장	-11.1455
▁몇명이	-11.1455
▁행동을	-11.1456
그것	-11.1458
▁사례로	-11.1458
▁공동체	-11.1459
▁회수	-11.1459
▁장면의	-11.146
inae	-11.1461
▁마음에	-11.1463
▁개봉	-11.1463
▁엽의	-11.1463
WE	-11.1464
위기	-11.1464
▁캐릭터의	-11.1465
▁죽을	-11.1466
▁거리를	-11.1467
문자	-11.1468
▁사용한	-11.1469
▁노선은	-11.1469
▁고성	-11.1469
▁비판을	-11.1469
▁탐험을	-11.1469
▁한국에서는	-11.147
▁생산한	-11.1471
▁선조	-11.1472
AL	-11.1472
▁대조	-11.1473
▁아메리카는	-11.1474
▁손상	-11.1474
▁측의	-11.1474
▁다만	-11.1475
▁총선에	-11.1475
▁오만	-11.1475
▁신성	-11.1476
리얼	-11.1476
▁편을	-11.1477
▁본사	-11.1478
쳤다는	-11.1478
움을	-11.1479
▁보조	-11.148
▁수송	-11.1481
방법	-11.1481
▁모델로	-11.1481
고래	-11.1482
▁기어	-11.1483
▁사실이	-11.1483
▁문화재	-11.1483
-18	-11.1483
▁있어서는	-11.1483
제한	-11.1485
▁기준을	-11.1485
▁문종	-11.1487
▁착	-11.1488
CE	-11.1488
▁사람들의	-11.149
▁대상을	-11.149
▁감지	-11.149
▁석권	-11.1491
▁목사	-11.1492
▁단장	-11.1492
평군	-11.1493
8,9	-11.1494
▁구해	-11.1495
Cr	-11.1496
▁이온	-11.1497
▁카바	-11.1497
▁농도	-11.1498
리라는	-11.1499
▁로마법	-11.1499
▁전쟁으로	-11.15
▁혼자	-11.1501
입구	-11.1503
▁원하는	-11.1503
>1</	-11.1504
▁전설의	-11.1504
▁르네	-11.1505
▁특	-11.1505
▁아이들의	-11.1505
임이	-11.1506
▁크기의	-11.1506
▁문명	-11.1506
▁お	-11.1507
▁3.8%	-11.1507
▁•	-11.1507
▁돔	-11.1507
▁쓸	-11.1507
▁뜨	-11.1507
▁스케이팅	-11.1507
▁コンクリート	-11.1507
▁묵	-11.1508
▁한반도에	-11.1508
▁우크라이나의	-11.1508
▁이집트의	-11.1508
▁픽	-11.1508
▁훈련	-11.1508
gen	-11.1508
▁아버지를	-11.1508
-14	-11.1509
▁짜	-11.1509
▁동맹	-11.1511
▁한나라당	-11.1511
▁작품인	-11.1511
▁탐험에	-11.1512
▁현경	-11.1513
▁조세	-11.1514
05",	-11.1515
빌리	-11.1515
▁다치	-11.1516
▁시게	-11.1516
데이	-11.1517
▁하위	-11.1517
▁차관	-11.1517
▁온도	-11.1518
▁종로	-11.1518
▁델	-11.1518
▁CF	-11.1519
▁Come	-11.152
▁향년	-11.1521
▁회의적	-11.1521
▁영원	-11.1522
▁이반	-11.1522
▁무죄	-11.1522
▁시스템이	-11.1523
▁진흥	-11.1524
▁성남	-11.1527
▁버전은	-11.1527
▁박씨	-11.1528
▁교회는	-11.1528
이후	-11.1529
고원	-11.153
▁미야	-11.153
▁규모	-11.1531
▁아주	-11.1532
▁들어간	-11.1532
▁그룹으로	-11.1532
▁교역	-11.1533
▁헤드	-11.1534
▁작품으로	-11.1535
▁전투를	-11.1536
▁장진영의	-11.1537
▁발전을	-11.1538
ES	-11.1539
▁Bo	-11.154
을때	-11.154
▁결승전	-11.154
▁운명	-11.154
▁인정된	-11.1541
부인	-11.1542
▁우승한	-11.1542
▁슈가	-11.1542
▁신동	-11.1545
▁접대	-11.1545
▁사건을	-11.1545
면서도	-11.1546
▁와서	-11.1546
▁배역을	-11.1547
▁원심	-11.1548
▁연구소	-11.1549
▁돌은	-11.1549
▁왕국	-11.155
▁위치는	-11.155
▁이준	-11.155
▁라리	-11.1551
▁오카	-11.1552
▁서쪽	-11.1552
▁달러의	-11.1553
▁울리	-11.1553
▁2.9%	-11.1553
2.4	-11.1554
▁Sh	-11.1554
▁목적지	-11.1554
▁트리의	-11.1555
▁신분제	-11.1556
▁표지	-11.1558
▁정사	-11.1558
번이나	-11.1558
▁양씨	-11.1558
▁패전	-11.1559
▁요인	-11.156
▁신사	-11.156
▁협	-11.156
점프	-11.1561
▁살에	-11.1561
▁패와	-11.1562
▁지역으로	-11.1563
▁내리	-11.1564
▁투수가	-11.1567
▁대통령은	-11.1567
▁홍대	-11.1569
▁황제가	-11.157
▁대만	-11.1571
▁여인	-11.1572
▁일족	-11.1574
▁선출되었	-11.1574
▁얼마였	-11.1577
이라면	-11.1578
가면	-11.1579
진리	-11.1581
▁투수는	-11.1582
▁몇가지	-11.1583
▁손을	-11.1584
훈장	-11.1584
=242	-11.1584
▁짐	-11.1585
▁모델이	-11.1588
tur	-11.1589
▁해군이	-11.1591
▁이병	-11.1591
시기	-11.1591
세에게	-11.1592
▁시간에	-11.1592
▁KS	-11.1592
▁주된	-11.1593
9-	-11.1594
▁땅	-11.1596
티지	-11.1598
▁어머니의	-11.1598
▁Tele	-11.1599
▁고백	-11.16
▁지구는	-11.16
▁마음의	-11.1602
들에는	-11.1603
까지도	-11.1603
5</	-11.1604
▁형식의	-11.1604
▁관련이	-11.1606
-0002	-11.1607
주몽	-11.1608
▁김대	-11.1609
▁노래를	-11.161
▁한강	-11.161
▁도시조	-11.1611
ct	-11.1613
.07	-11.1614
▁제공	-11.1614
▁김지	-11.1614
윤하	-11.1615
▁보냈	-11.1615
▁안드레	-11.1616
▁볼을	-11.1618
▁흉	-11.1619
▁이영	-11.162
▁생일	-11.162
공학	-11.162
▁누구와	-11.1621
▁윈	-11.1622
▁프랑스와	-11.1623
▁등장하	-11.1625
관은	-11.1625
ls	-11.1625
▁테라	-11.1626
he	-11.1627
지마	-11.1628
▁시청률이	-11.1629
▁성과	-11.163
▁신화가	-11.163
▁실력	-11.1631
1.7	-11.1632
▁공과	-11.1633
▁상세	-11.1633
▁VR	-11.1634
▁지방에서	-11.1636
PI	-11.1637
▁2.4	-11.1638
▁금주	-11.1638
▁싸우	-11.1639
5.0	-11.1639
▁天	-11.164
▁검	-11.164
ton	-11.164
▁샘	-11.164
▁세력	-11.1642
▁charts	-11.1642
▁(32	-11.1643
▁골든차일드의	-11.1644
▁김일성의	-11.1644
▁산업의	-11.1644
▁항공사의	-11.1644
▁예주	-11.1646
▁가문의	-11.1646
▁수천	-11.1647
▁동원	-11.1647
▁TO	-11.165
▁대위	-11.1651
▁대전대	-11.1651
임용	-11.1652
▁리스트	-11.1653
▁대리	-11.1653
▁시기에	-11.1654
달마	-11.1655
6.4	-11.1655
야만	-11.1655
▁2.0	-11.1656
한것은	-11.1656
▁사거리	-11.1656
▁손에	-11.1656
▁시즌에는	-11.1659
-00367	-11.166
▁1.3	-11.166
▁콜	-11.1661
▁간을	-11.1663
▁속을	-11.1665
▁뿐만	-11.1667
ze	-11.1667
▁명일까	-11.1667
▁여왕	-11.1668
▁시대는	-11.1669
▁주화	-11.1669
본이	-11.1672
민은	-11.1672
국장	-11.1673
▁방송한	-11.1674
▁내용의	-11.1674
▁중소	-11.1674
▁3.6	-11.1676
▁외상	-11.1677
▁평성	-11.168
▁말할	-11.1682
노란	-11.1683
▁법학	-11.1684
▁2,4	-11.1686
▁개국	-11.1687
▁고교	-11.1688
▁교수로	-11.1688
대역	-11.1689
▁두어	-11.169
▁주인공의	-11.1691
편의	-11.1692
느리	-11.1694
▁시신	-11.1694
▁대회에서	-11.1694
▁했을	-11.1694
▁미니	-11.1695
1871	-11.1696
▁285	-11.1696
▁협의	-11.1697
▁사당	-11.1697
호프	-11.17
▁사라지	-11.1703
숙의	-11.1704
▁공로	-11.1708
▁죽이	-11.1709
▁회전	-11.1711
타마	-11.1712
▁Su	-11.1715
▁입당	-11.1717
▁개교	-11.1723
▁인디	-11.1724
▁철학자	-11.1725
7.3	-11.1727
▁+2	-11.1732
▁송정	-11.1732
▁Cy	-11.1734
▁전해지	-11.1734
▁암호화	-11.1735
▁루블의	-11.1735
▁서하의	-11.1735
케인	-11.1736
4.9	-11.1738
▁상대는	-11.1738
지면	-11.174
▁샤	-11.174
▁방송사의	-11.1744
▁반동	-11.1745
보아	-11.1745
브리	-11.1746
▁유한	-11.1748
나코	-11.1748
▁법에	-11.175
▁왕이	-11.1752
▁이전에	-11.1752
▁꽃은	-11.1752
하자면	-11.1753
▁문화가	-11.1753
키는	-11.1755
▁고도	-11.1756
▁지점	-11.1756
아난	-11.1759
도적	-11.176
▁철학	-11.1764
▁소설의	-11.1764
▁부르기	-11.1765
서로	-11.1772
▁엄	-11.1773
▁무엇에	-11.1775
▁학교는	-11.1776
▁척	-11.1776
강에	-11.1778
키시	-11.178
▁번에	-11.1786
▁Pa	-11.1786
▁황제의	-11.1786
▁시작하게	-11.1787
▁44,	-11.1788
심의	-11.1789
▁세상	-11.1792
▁데뷔를	-11.1792
▁무왕	-11.1794
▁소리	-11.1795
마을버스	-11.1798
현의	-11.1799
▁1.5	-11.1801
▁대학교가	-11.1801
▁음악은	-11.1802
▁기록을	-11.1803
▁나주	-11.1806
위까지	-11.1809
GS	-11.1811
▁버거	-11.1812
▁제어	-11.1813
▁전해	-11.1817
▁없다는	-11.1818
▁171	-11.1819
▁국회의원은	-11.182
▁참고로	-11.182
▁밴드의	-11.1829
Ver	-11.183
-00008	-11.183
▁우에	-11.1832
AR	-11.1833
재단	-11.1835
8.7	-11.1836
▁희극인	-11.1838
▁공은	-11.1839
0.0	-11.1839
▁위원회가	-11.1842
▁생기	-11.1843
▁(15	-11.1845
▁언어로	-11.1845
되었을	-11.1847
▁무패	-11.1848
▁갔	-11.1849
▁성조	-11.1852
▁일본으로	-11.1854
▁아누	-11.1856
상욱	-11.187
제를	-11.187
려는	-11.1872
차전에서	-11.1875
▁배역의	-11.1879
▁110	-11.1881
▁기간은	-11.1883
▁영지	-11.1885
279	-11.1887
▁정당의	-11.1889
▁인도는	-11.1891
▁작품을	-11.1893
893	-11.1894
▁128	-11.1896
▁속이	-11.1899
▁64.	-11.19
▁환자	-11.1906
파는	-11.1909
▁초에	-11.1909
▁춘	-11.1911
티아	-11.1912
정통	-11.1912
▁이후에	-11.1915
▁쇠	-11.1915
▁高	-11.1915
▁위기에	-11.1915
▁수상자	-11.1916
▁공화국	-11.1917
▁했지만	-11.1917
▁이토	-11.1921
▁부여의	-11.1922
▁아버지의	-11.1923
98,	-11.1925
논란이	-11.1927
▁그라	-11.1928
마루	-11.1931
▁14.3	-11.1933
▁활동은	-11.1933
▁다리	-11.1936
산읍	-11.1937
5.8	-11.1938
설은	-11.1942
▁지방에	-11.1942
타나	-11.1944
디나	-11.1947
-00076	-11.1951
▁쓰이	-11.1954
현준	-11.1957
-0028	-11.1961
구가	-11.1967
억원	-11.1967
80",	-11.1968
▁107	-11.1972
▁사회의	-11.1974
▁162	-11.1975
정구	-11.1978
▁국가대표로	-11.1985
호르	-11.199
▁미술	-11.1993
▁개발자들	-11.1997
▁진행을	-11.1999
▁양은	-11.2002
▁법을	-11.2005
시설은	-11.2007
성에	-11.2008
▁아들을	-11.2011
▁역할의	-11.2012
-00090	-11.2012
▁팀으로	-11.2013
▁비로	-11.2015
▁말로	-11.2015
▁상고	-11.2015
ns	-11.2015
▁휴	-11.2016
▁어디였	-11.2018
▁유래한	-11.2019
▁음을	-11.2025
▁이소	-11.2028
사키	-11.2031
▁만일	-11.2037
0.5	-11.2039
▁시위	-11.204
▁타인	-11.2046
▁편의	-11.2049
나주	-11.205
=22	-11.2053
▁시제	-11.2055
▁되며	-11.2056
▁さ	-11.2057
▁터널	-11.2057
▁충	-11.2058
-0021	-11.2059
▁작전	-11.2061
학자들은	-11.2063
▁선물	-11.2064
소리	-11.2064
▁그리스의	-11.2065
▁장도	-11.2066
1.3	-11.2067
▁전도	-11.2071
▁조선의	-11.2074
당에	-11.2075
▁김은	-11.2079
이었지만	-11.2087
▁못하기	-11.2093
▁시리즈의	-11.2096
366	-11.2096
▁때문이었	-11.2097
▁기세	-11.2104
▁청년	-11.2106
▁이산	-11.2111
▁스페인의	-11.2111
▁장군	-11.2112
▁교육에	-11.2116
▁시키는	-11.2119
가키	-11.2126
56	-11.213
▁돈	-11.2132
▁확대	-11.2134
능력의	-11.2139
▁서일본	-11.214
가타	-11.2142
여진	-11.2143
지않은	-11.2147
▁강도	-11.215
안타	-11.215
▁각자	-11.2151
체는	-11.2153
▁스와	-11.2155
▁실패했다	-11.2157
▁서은	-11.2164
6.5	-11.2168
▁중동	-11.2168
0.3	-11.2169
회사와	-11.217
해주	-11.2178
▁방출	-11.2178
최수	-11.218
▁도선	-11.218
▁왕자	-11.2192
▁시켜	-11.2194
▁로사	-11.2199
노가	-11.2201
종은	-11.2204
▁대학의	-11.2205
▁무엇의	-11.221
족이	-11.2211
▁망운면	-11.2218
ye	-11.2221
5.3	-11.2232
치에	-11.2235
양원	-11.2237
▁사용자가	-11.2237
선언	-11.224
▁누구에	-11.2249
들지	-11.2251
▁물에	-11.226
정부가	-11.2268
들인	-11.2271
▁정권	-11.2272
▁용기	-11.2274
▁DR	-11.2274
▁바뀌었	-11.228
▁보는	-11.2282
▁이전의	-11.2293
그네	-11.2294
라도	-11.2298
▁현대의	-11.2298
미니	-11.2303
1995	-11.231
24",	-11.2311
이었으나	-11.2312
▁머	-11.2313
9.2	-11.2321
▁이란	-11.2337
Met	-11.2339
▁전개	-11.2346
▁강수	-11.2362
▁견	-11.2365
▁아나운서의	-11.2369
▁주소는	-11.2372
▁파크	-11.2384
로그	-11.2386
티시	-11.239
inal	-11.2396
▁오르면	-11.2399
전을	-11.24
대정	-11.2401
▁의심	-11.2413
▁일원으로	-11.2413
리조	-11.2414
▁후보에	-11.2422
당하는	-11.2427
도리	-11.243
자라고	-11.2435
▁금지한	-11.2438
▁오이	-11.2439
▁미국과	-11.2449
▁이장	-11.2449
2.1%	-11.2453
학생을	-11.2464
▁몇년이	-11.2474
이었을까	-11.2475
▁대역	-11.248
LM	-11.2489
▁히라	-11.2492
▁작용	-11.2496
▁101	-11.2497
▁책을	-11.2498
▁물을	-11.2499
▁안에	-11.2505
▁[6	-11.251
97",	-11.2512
▁산성	-11.2512
▁전쟁의	-11.2517
808	-11.2531
▁앨범에	-11.2539
▁확대되	-11.2543
▁한국이	-11.2548
tion	-11.255
세와	-11.2554
▁도달	-11.2554
미노	-11.2555
3,7	-11.2555
시한	-11.256
▁TD	-11.2562
주현	-11.2566
78	-11.2572
▁명명	-11.2585
▁융합	-11.2589
편이	-11.2595
▁수행한	-11.2596
재주	-11.2601
▁교통	-11.2601
호선이	-11.2611
ve	-11.2617
▁톤	-11.263
370	-11.2632
750	-11.2633
▁추측	-11.2636
▁선은	-11.264
▁세계는	-11.2641
▁함으로써	-11.2658
318	-11.2663
▁번째로	-11.2666
▁경우는	-11.2672
카드는	-11.2687
클라	-11.2693
▁먼	-11.2695
▁재선	-11.2695
ja	-11.2707
적에	-11.2712
j	-11.2712
▁국가는	-11.2724
정복	-11.2727
명에	-11.2744
▁확률이	-11.2747
▁표시	-11.2748
합으로	-11.2749
▁팬들	-11.2757
▁정이	-11.276
조는	-11.2762
▁거쳤	-11.2762
계의	-11.278
▁해서	-11.2783
▁1]	-11.2793
▁선임	-11.2797
Sp	-11.2799
▁정보는	-11.2804
,600	-11.2827
▁스포	-11.2846
▁날조	-11.2851
▁유행	-11.2857
형인	-11.2867
▁예선의	-11.2869
▁임명되었	-11.287
▁중지	-11.2881
▁일본이	-11.2885
질을	-11.2901
▁감옥	-11.2902
▁조기	-11.2903
▁이적했	-11.2904
50",	-11.2906
결혼을	-11.291
▁마리	-11.2916
분기	-11.2937
▁선을	-11.2938
▁중인	-11.2956
파의	-11.2959
자르	-11.2968
했었	-11.2969
년대의	-11.2972
▁조동	-11.2972
이게	-11.298
환이	-11.2982
OR	-11.3006
▁시즌의	-11.3017
유리	-11.3025
▁13.1	-11.3032
비자	-11.3034
미사	-11.3034
번호는	-11.3038
▁오사	-11.304
▁아가	-11.3048
문과	-11.3049
관의	-11.3063
되었다는	-11.3064
영의	-11.3065
▁이익	-11.3076
▁균형	-11.3092
276	-11.3101
에게는	-11.3103
되자	-11.3108
▁불의	-11.3109
▁1,9	-11.3113
기고	-11.312
▁의문	-11.312
▁수정	-11.3129
▁생각할	-11.3136
▁신부	-11.3151
7000	-11.3153
정하여	-11.3153
44",	-11.3162
였는데	-11.3175
1700	-11.3176
어하는	-11.3179
정동	-11.3193
되었다가	-11.3201
지로	-11.3203
io	-11.3203
▁미국은	-11.3231
만은	-11.3231
EB	-11.3231
위원회의	-11.3234
채로	-11.3255
방한	-11.3256
5.2	-11.3257
시간의	-11.3264
17",	-11.3281
운다	-11.329
우회	-11.33
▁멘	-11.3304
▁大	-11.3309
드로	-11.3314
리히	-11.3333
▁되었다는	-11.3338
▁취급	-11.3339
너는	-11.3342
~192	-11.3347
▁재무	-11.3357
서리	-11.3379
▁한다는	-11.3382
▁LA	-11.3384
133	-11.3386
▁전화	-11.3389
▁아니었	-11.3435
슬	-11.3448
▁재생	-11.3456
▁수감	-11.3463
390	-11.3471
.6%	-11.3474
테이	-11.3476
52",	-11.3482
이기도	-11.3488
사고가	-11.3507
▁양동	-11.3526
▁문화적	-11.3538
모치	-11.3538
비나	-11.356
▁이세	-11.356
▁대화	-11.3563
역에	-11.3569
▁홍천	-11.3581
▁모모	-11.3584
tes	-11.3585
시라	-11.3587
▁서울시	-11.3594
병이	-11.3609
▁문제들	-11.3616
9.8)	-11.3619
06.1	-11.3627
▁간에	-11.3634
▁라스	-11.364
▁원장	-11.3645
▁지리	-11.3646
▁Ch	-11.3666
공유	-11.3674
▁하윤는	-11.3676
청정	-11.3685
무관	-11.3714
행정	-11.3726
세였	-11.3734
하였다고	-11.3739
▁프랑스에서	-11.3744
쿠미	-11.3756
책을	-11.3761
▁Don	-11.3761
정상	-11.3765
기까지	-11.3775
▁403	-11.378
▁RE	-11.3794
▁카이	-11.3801
본을	-11.3808
드의	-11.3846
토리	-11.3847
DD	-11.3862
▁현우는	-11.3868
▁상이	-11.3868
물은	-11.387
872	-11.3871
성부	-11.3888
산토	-11.3912
-0008	-11.3924
erg	-11.3925
포르	-11.393
▁5.4	-11.393
▁규	-11.3937
레이	-11.3953
동원	-11.3964
내로	-11.398
▁도가	-11.3982
라마	-11.3992
도시가	-11.3993
▁덕에	-11.3994
정한다	-11.4007
되지만	-11.4007
▁발견되	-11.4014
태현	-11.4022
제트	-11.4023
동에	-11.4027
하시	-11.4041
책	-11.4052
▁내적	-11.4081
▁왜성	-11.4088
했나	-11.4096
hing	-11.4106
악의	-11.4111
지구	-11.4122
이었으며	-11.4126
▁02	-11.4142
쪽으로	-11.4154
▁임명	-11.4169
▁전거	-11.417
-00046	-11.4192
▁수록되었	-11.4201
야카	-11.421
서에	-11.4214
르트	-11.4225
▁마자	-11.4227
길동	-11.4231
사카	-11.4269
▁쉽지	-11.4271
▁example	-11.4278
lo	-11.4296
▁소스	-11.4296
▁락	-11.4298
메일	-11.4305
행성	-11.4311
▁정재	-11.4319
화되고	-11.4347
▁학교에서	-11.4347
do	-11.4371
내고	-11.4375
▁입단했	-11.4378
▁요원	-11.4389
▁진행한	-11.4395
수면	-11.4406
타르	-11.4416
평화	-11.4422
▁편찬	-11.4422
여고	-11.4426
▁추측되	-11.4426
▁페이스	-11.4462
스토	-11.4492
▁매입	-11.4496
1930	-11.4505
way	-11.4524
▁희생	-11.454
하와	-11.4553
▁성공한	-11.4562
▁l	-11.4564
▁탈출	-11.4567
▁명명했	-11.4585
▁청계면	-11.4587
조하여	-11.4591
▁We	-11.46
Qu	-11.4602
▁못했	-11.4606
4,1	-11.4606
▁Mar	-11.4622
(24	-11.4623
심을	-11.4628
프스	-11.463
=244	-11.463
차량	-11.4635
▁로부터	-11.4639
▁무사	-11.4648
▁구분이	-11.4648
▁사용되었을	-11.4649
▁-3	-11.4655
쳤지만	-11.4657
AU	-11.4662
fl	-11.4673
▁판타	-11.4679
ain	-11.4682
▁시도	-11.4685
▁요절	-11.4686
날개	-11.4688
무대	-11.47
▁파비아	-11.471
▁높아	-11.4722
2-1	-11.4727
수수	-11.4736
▁존재하	-11.4755
수서	-11.4765
어졌	-11.4785
▁작용하	-11.4787
▁국내	-11.4799
일본어	-11.4801
▁원정	-11.4806
▁영양	-11.4812
▁낮	-11.4825
▁밝혀	-11.483
퇴역	-11.4842
수한	-11.4846
ogra	-11.4863
67	-11.4866
▁의상	-11.4906
829	-11.4907
395	-11.4914
사용	-11.4925
-0007	-11.4925
▁학생들	-11.4937
▁156	-11.4937
▁사용하면	-11.494
▁비행	-11.495
자들에게	-11.4952
네모	-11.4981
▁프로그램이	-11.4986
om	-11.4988
▁계승	-11.4989
179	-11.4991
▁함락되	-11.4997
▁능력	-11.5013
히면	-11.5016
▁브레트	-11.5032
-8	-11.5039
▁맞지	-11.504
vat	-11.5042
sm	-11.5044
▁명칭이	-11.5063
120	-11.5069
령이	-11.5078
이너	-11.5089
▁159	-11.5094
▁패하였	-11.5106
▁미세	-11.5132
▁안전하	-11.5147
인과	-11.5169
UR	-11.5169
ass	-11.5195
▁감독으로	-11.5206
로코	-11.5217
▁영상	-11.523
레나	-11.5231
▁동료	-11.5233
▁전사	-11.5234
격이	-11.5236
암리	-11.5263
▁차단	-11.5268
되게	-11.5272
IC	-11.5301
버트	-11.5302
▁성직자	-11.5311
(36	-11.5322
▁성능	-11.5329
돌리	-11.5336
ann	-11.5337
구아	-11.5343
▁항의	-11.5347
▁유인	-11.5354
사무소	-11.5371
되	-11.5375
란다	-11.5378
▁Pe	-11.5379
동환	-11.5381
▁명령	-11.5397
cor	-11.5405
yo	-11.5406
문화의	-11.5407
▁136	-11.5434
▁시작하는	-11.5445
릭	-11.545
▁의무위반	-11.5455
데다	-11.5467
컨	-11.5477
결을	-11.5486
사인	-11.5492
▁구현	-11.5493
▁합리적	-11.5501
▁1,0	-11.5503
버스의	-11.5518
▁시민	-11.5525
314	-11.5533
▁밀리	-11.5535
연구소	-11.5538
▁전적	-11.555
▁정시	-11.5551
그로	-11.5552
▁스티	-11.5561
시되어	-11.5565
▁이내에	-11.5567
▁Dan	-11.5617
▁양식	-11.5621
비아	-11.5625
제사	-11.5628
사지	-11.5632
▁투입	-11.5644
대장	-11.5645
ista	-11.5653
▁댐	-11.5654
▁지적하	-11.5655
진흥	-11.5657
키아	-11.5666
▁도라	-11.5666
▁700	-11.568
▁질환	-11.5684
▁유효	-11.5684
-00018	-11.5687
▁발전되었	-11.5688
2-2	-11.569
▁집에	-11.5714
학교에	-11.5716
▁Sing	-11.5716
13",	-11.5719
도입	-11.5722
데스	-11.5724
▁감문	-11.5726
ce	-11.5729
율이	-11.5733
하길	-11.5739
▁MP	-11.5747
▁채택하	-11.5754
수상	-11.5764
9</	-11.5777
▁나타내	-11.5782
점은	-11.5785
yp	-11.5793
▁안동	-11.5793
해지는	-11.5796
비트	-11.5803
min	-11.5804
▁이것	-11.5818
혜영	-11.5826
▁다루	-11.5829
▁제주특별자치도	-11.5829
욕	-11.5845
▁나타나	-11.5848
tz	-11.5851
행사	-11.5855
2,400	-11.5864
왔	-11.5865
인들에	-11.5874
▁세종대	-11.5874
팩	-11.5875
▁이자	-11.5883
▁의정부	-11.5887
물이	-11.5892
총	-11.5897
ica	-11.5899
올	-11.5906
염	-11.5912
동근	-11.5914
ling	-11.5918
3,0	-11.5918
ck	-11.592
679",	-11.5921
댐	-11.5924
우며	-11.5925
리아나	-11.5926
옹	-11.593
빠	-11.5935
듯	-11.5935
▁구멍	-11.5935
▁별로	-11.5935
▁어휘	-11.594
램	-11.5947
풀	-11.5947
본부	-11.5949
자전거	-11.595
本	-11.595
컴	-11.5951
궐	-11.5952
스페인어	-11.5952
주말드라마	-11.5953
주식회사	-11.5953
흠	-11.5953
얀	-11.5953
도네츠크	-11.5953
論	-11.5953
루한스크	-11.5953
프리미어	-11.5953
始	-11.5953
꺼	-11.5953
납	-11.5953
킴	-11.5953
풋	-11.5953
퀘벡	-11.5953
생활은	-11.5953
검찰	-11.5953
짜	-11.5954
브뤼	-11.5954
플러스	-11.5954
TOY	-11.5954
같	-11.5955
받았던	-11.5958
증거	-11.5958
액션	-11.5958
새	-11.5959
라이프	-11.5961
뷔	-11.5961
수도권	-11.5961
쿄	-11.5962
tre	-11.5967
》(200	-11.5968
사람들	-11.597
KB	-11.597
착	-11.5974
부처	-11.5975
죄	-11.5975
노력	-11.5976
버그	-11.5978
건희	-11.5979
▁인간이	-11.598
Come	-11.5981
묵	-11.5981
압	-11.5982
높	-11.5982
DI	-11.5984
밀	-11.5984
픽	-11.5986
퓨	-11.5986
스케이팅	-11.5987
뜨	-11.5987
한나라당	-11.5987
•	-11.5987
순천	-11.5987
お	-11.5987
쓸	-11.5987
돔	-11.5987
コンクリート	-11.5987
기간은	-11.5988
よ	-11.5989
훈련	-11.599
력은	-11.5992
혹	-11.5994
LA	-11.5994
아누	-11.5996
탐	-11.5998
룩	-11.5999
일자는	-11.5999
벽	-11.5999
작품	-11.6001
『	-11.6001
아메리칸	-11.6001
옷	-11.6001
이글스	-11.6001
권오성	-11.6002
▁연구원	-11.6002
사랑을	-11.6002
사업을	-11.6002
속도는	-11.6003
동맹	-11.6003
먹	-11.6003
충격	-11.6005
울리	-11.6005
싸	-11.6006
유형	-11.6009
사운드	-11.6009
헤드	-11.6009
혐의로	-11.601
前	-11.601
국제영화제	-11.601
▁희극	-11.6011
데이터	-11.6013
신영	-11.6014
프로듀서	-11.6015
Love	-11.6015
고속도로	-11.6015
멕시코	-11.6015
금융	-11.6015
▁만족	-11.6015
OB	-11.6016
군으로	-11.6017
In	-11.6017
컴즈	-11.6017
시험	-11.6018
미디어	-11.6019
탑	-11.6019
CF	-11.6019
걸스	-11.6021
프리드먼	-11.6021
켄	-11.6022
얼론	-11.6022
올리	-11.6022
잡	-11.6022
캐	-11.6023
팝	-11.6023
경찰	-11.6024
nm	-11.6024
KS	-11.6024
몰	-11.6024
▁On	-11.6025
특별출연	-11.6025
사건의	-11.6025
채권	-11.6026
라이트	-11.6026
딸	-11.6026
페리에	-11.6027
예능	-11.6027
득점	-11.6027
애니메이션	-11.6028
▁중간에	-11.6028
[7]	-11.603
백은	-11.603
스토리	-11.603
AC	-11.6031
아버지	-11.6031
활동을	-11.6031
컵에서	-11.6031
가톨릭	-11.6032
받아	-11.6033
음력	-11.6033
9.7	-11.6033
신앙	-11.6033
언남	-11.6034
「	-11.6034
▁지름	-11.6034
신문	-11.6034
스포츠	-11.6035
“	-11.6035
프로그램	-11.6035
어지게	-11.6036
Min	-11.6036
모바일	-11.6036
903	-11.6036
모델	-11.6036
동동	-11.6036
스톤	-11.6037
대략	-11.6037
함께	-11.6037
검사	-11.6039
후반	-11.6039
결정	-11.6039
3.8%	-11.6039
네버	-11.604
코리아	-11.6041
일요일	-11.6041
처음	-11.6041
▁조카	-11.6042
오사카	-11.6042
▁정문	-11.6044
말할	-11.6044
따라	-11.6044
세력	-11.6044
아시아	-11.6044
크레	-11.6045
번호	-11.6045
발생	-11.6046
Sh	-11.6049
오카	-11.6052
경남	-11.6052
출신	-11.6055
▁의식에	-11.6056
총장	-11.6057
게이트	-11.6058
장학	-11.6058
시내	-11.6059
중심	-11.6063
▁자체에	-11.6066
진출	-11.6067
▁정적	-11.6068
것으로	-11.6069
성남	-11.6069
사이트	-11.607
운영	-11.6071
정권	-11.6074
높은	-11.6075
~4	-11.6076
같은	-11.6077
교수로	-11.6078
경기에서	-11.608
뉴스	-11.6081
이었기	-11.6081
본명	-11.6083
르네	-11.6087
량을	-11.6088
2006	-11.6092
생산	-11.6098
▁요셉	-11.6099
9.4	-11.61
DS	-11.61
때는	-11.61
조합	-11.6101
형제	-11.6105
미정	-11.6106
받고	-11.6107
2000	-11.6107
경선	-11.6108
사유	-11.6111
졌어	-11.6112
부르크	-11.6112
시작	-11.6115
LS	-11.6116
Wi	-11.6117
아키	-11.6118
사랑	-11.6119
▁캠페인	-11.6121
전문	-11.6122
사업	-11.6122
▁2004-0	-11.6122
her	-11.6122
노동자	-11.6126
▁증오하	-11.6129
▁Mat	-11.6132
발리	-11.6132
민족	-11.6132
욱이	-11.6134
게임	-11.6134
약을	-11.6136
구단	-11.6137
▁정동	-11.6139
이름은	-11.6141
예선	-11.6142
하게된	-11.6142
▁사령관	-11.6144
이야기	-11.6144
▁(27	-11.6145
자면	-11.6146
무게	-11.6146
아르	-11.6149
신부	-11.6149
.9)	-11.6151
동물	-11.6154
▁천주	-11.6158
맛을	-11.6161
▁프랑	-11.6162
쓰는	-11.6164
팀은	-11.6166
여성	-11.6166
청주	-11.6166
▁삼국	-11.6167
▁나왔	-11.6172
SQ	-11.6174
수정	-11.6182
▁로버츠	-11.6183
▁바빌로니아	-11.6186
▁알렉산드리아	-11.6186
▁활주로	-11.6186
▁다이노스	-11.6186
▁채무자	-11.6186
▁버클리	-11.6186
▁기황후	-11.6187
▁Se	-11.6187
대회에서	-11.6188
▁카이저	-11.6188
▁칼릴	-11.6189
▁이승복	-11.619
투어	-11.6192
9]	-11.6195
▁Spe	-11.6196
대행	-11.6197
▁클라이언트	-11.6197
▁Ar	-11.6199
▁LT	-11.62
왕자	-11.62
위원회는	-11.62
▁이태	-11.6202
▁어렵	-11.6203
▁공항	-11.6204
▁세웠	-11.6204
▁악마	-11.6204
▁양키스	-11.6204
▁니카라과	-11.6205
▁(2018	-11.6206
=2	-11.6206
▁원칙	-11.6207
이름이	-11.6208
관계를	-11.6209
▁주나라	-11.621
-00053	-11.6211
▁크리	-11.6212
▁천민	-11.6213
였으나	-11.6214
▁천국	-11.6215
▁아문센	-11.6216
▁민중	-11.6218
기부터	-11.6223
도시는	-11.6223
박한	-11.6227
사토	-11.6228
세운	-11.6229
영화상	-11.6229
당해	-11.6232
TH	-11.6233
2.5	-11.6236
116	-11.6236
▁요시	-11.6237
▁파르크	-11.6237
▁않다	-11.6237
▁나중에	-11.6238
플레이	-11.6238
켓	-11.6239
쟁	-11.624
▁익스프레스	-11.624
▁라오스	-11.624
1976	-11.624
▁상관관계	-11.624
법인	-11.6243
▁여겨	-11.6244
Ne	-11.6244
▁5,5	-11.6245
▁우유	-11.6246
▁아노말로카리스	-11.6246
철도	-11.6246
▁조선시대	-11.6248
▁진나라	-11.6248
▁칼리	-11.6249
▁곳들	-11.6251
▁거부하	-11.6251
▁아르메니아	-11.6252
▁줄거리	-11.6253
▁캐슬링	-11.6254
▁탈삼진	-11.6256
▁쿠우겐	-11.6256
혔	-11.6256
장면	-11.6256
교를	-11.6256
▁450	-11.6256
▁관해서	-11.6257
침략	-11.6257
▁위협	-11.6258
합체	-11.6258
▁강수량	-11.6258
▁초현	-11.6258
▁은퇴	-11.6258
스투	-11.6258
▁설득	-11.6259
상서	-11.626
▁가리키	-11.626
hi	-11.6261
▁취미	-11.6262
셨	-11.6262
들었을	-11.6262
략	-11.6264
▁이슈트반	-11.6264
세포	-11.6264
▁어떤것	-11.6265
▁투표율	-11.6265
▁6.1	-11.6265
▁무어인들	-11.6266
▁동독	-11.6266
▁장보고	-11.6267
▁리버풀	-11.6268
▁엡실론	-11.6268
▁레일건	-11.6268
모리의	-11.6269
ode	-11.6269
▁불꽃	-11.6269
소동	-11.627
▁면적	-11.627
례가	-11.627
▁요시쓰네	-11.627
▁이한영	-11.6271
▁신인왕	-11.6271
ree	-11.6272
▁포대들	-11.6272
BS	-11.6272
▁[35	-11.6272
궁극	-11.6274
밭	-11.6274
찰	-11.6275
▁야우	-11.6276
▁치료	-11.6276
▁챔피언십	-11.6276
▁충동	-11.6277
퀴	-11.6277
▁주변에	-11.6277
다른	-11.6277
험	-11.6278
▁취약	-11.6278
테이션	-11.6278
▁위그	-11.628
경기에	-11.628
8.4%	-11.628
-13	-11.6282
▁장치	-11.6282
TI	-11.6283
올렸	-11.6283
▁전술	-11.6285
공원이	-11.6285
▁히데	-11.6286
ross	-11.6286
▁242	-11.6286
▁이행지체	-11.6287
▁홈구장	-11.6287
▁급격	-11.6288
▁개그맨	-11.6288
리케	-11.6288
▁체계	-11.6289
▁이동통신사	-11.629
뱅크	-11.6291
▁발탁	-11.6291
▁미스터	-11.6291
파리	-11.6291
▁군영	-11.6291
트랜	-11.6292
▁8.0	-11.6293
▁도착지	-11.6293
eve	-11.6293
냥	-11.6294
▁수백	-11.6294
졸	-11.6294
부장	-11.6294
컴퍼니	-11.6294
▁올해	-11.6295
▁활성	-11.6295
▁발단	-11.6296
▁임무	-11.6296
▁싫어	-11.6296
▁집착	-11.6297
▁라이온	-11.6297
▁게시	-11.6298
▁결혼식	-11.6299
▁관측	-11.6299
캄	-11.6299
▁8.9	-11.6299
▁압해	-11.6299
널	-11.63
{	-11.63
▁인연	-11.63
vin	-11.63
shi	-11.63
섯	-11.63
▁해체되었	-11.6301
▁비난	-11.6301
▁왕권	-11.6301
▁썼	-11.6301
랙	-11.6301
▁골든	-11.6301
륨	-11.6302
2019	-11.6302
▁율리	-11.6302
셜	-11.6303
닐	-11.6303
▁그레고리	-11.6303
콕	-11.6303
▁개인주의	-11.6303
▁Le	-11.6303
곱	-11.6303
혼자	-11.6303
넌	-11.6303
UM	-11.6303
녔	-11.6303
듀	-11.6304
pos	-11.6304
닷	-11.6304
▁출간	-11.6304
TER	-11.6304
럿	-11.6304
â	-11.6304
▁서울예술대학	-11.6305
▁신건설	-11.6305
莊	-11.6305
▁재보궐	-11.6305
께	-11.6305
꼬	-11.6305
레이터	-11.6305
바야시	-11.6305
▁확산	-11.6305
リ	-11.6305
선생님	-11.6306
셉	-11.6306
캐슬	-11.6306
ボ	-11.6306
▁보존	-11.6306
▁127.1099806	-11.6306
유니버	-11.6306
▁소프트	-11.6306
▁헤라클	-11.6306
깃	-11.6306
ノ	-11.6306
四	-11.6306
플라타	-11.6306
라테스	-11.6306
멀	-11.6306
分	-11.6306
區	-11.6306
甁	-11.6306
벡	-11.6306
▁닛폰	-11.6306
夫	-11.6306
짱	-11.6306
餘	-11.6306
닛	-11.6306
バ	-11.6306
フィー	-11.6306
員	-11.6306
第	-11.6306
콤	-11.6306
Ros	-11.6306
勝	-11.6306
斗	-11.6306
寺	-11.6306
튜	-11.6306
Andalucía	-11.6306
avarra	-11.6306
email	-11.6306
uci	-11.6306
á	-11.6306
о	-11.6306
р	-11.6306
рпск	-11.6306
ر	-11.6306
▁몰장와방	-11.6306
▁엘리사벳	-11.6306
ち	-11.6306
ップ	-11.6306
ブ	-11.6306
マ	-11.6306
主	-11.6306
作	-11.6306
傷	-11.6306
卽	-11.6306
太	-11.6306
如	-11.6306
放	-11.6306
未	-11.6306
朴	-11.6306
漣	-11.6306
物	-11.6306
狂	-11.6306
神	-11.6306
蒼	-11.6306
蘭	-11.6306
衆	-11.6306
辛	-11.6306
須	-11.6306
龐	-11.6306
톡	-11.6306
切	-11.6306
뜯	-11.6306
▁Children	-11.6306
▁d̪ɣan	-11.6306
▁t̪ɣuə	-11.6306
▁「○○	-11.6306
▁ふる	-11.6306
▁꽂아놓	-11.6306
▁남민포동	-11.6306
▁농산물	-11.6306
▁떠올	-11.6306
▁베테랑	-11.6306
▁올랜도	-11.6306
▁일반적	-11.6306
優	-11.6306
千	-11.6306
協議會	-11.6306
奉	-11.6306
崔	-11.6306
景	-11.6306
朝	-11.6306
盧	-11.6306
綱	-11.6306
青春	-11.6306
귤	-11.6306
샌	-11.6306
싼	-11.6306
춥	-11.6306
츄	-11.6306
켐	-11.6306
튀	-11.6306
흰	-11.6306
Purfles	-11.6306
magin	-11.6306
▁AHF	-11.6306
▁Avenue	-11.6306
▁Close	-11.6306
▁Runners	-11.6306
▁名曰	-11.6306
▁꾀하	-11.6306
▁끊어	-11.6306
▁뇌물	-11.6306
▁맑은	-11.6306
▁카라반첼	-11.6306
▁함평읍	-11.6306
緣	-11.6306
멈	-11.6306
윗	-11.6306
훌	-11.6306
$%&'	-11.6307
(2000~2004)	-11.6307
-/=?^_`{}|	-11.6307
Advance	-11.6307
Alexander	-11.6307
Choi	-11.6307
Comunitat	-11.6307
Fake	-11.6307
LIVE	-11.6307
Ngọc	-11.6307
OID	-11.6307
OUND	-11.6307
SAKURA	-11.6307
STAR	-11.6307
Stay	-11.6307
True	-11.6307
Union	-11.6307
Voice	-11.6307
Vạn	-11.6307
Weekender	-11.6307
Yellow	-11.6307
arrive	-11.6307
cific	-11.6307
eaching	-11.6307
hard	-11.6307
iamesinae	-11.6307
kHz	-11.6307
omyiinae	-11.6307
onominae	-11.6307
orwegian	-11.6307
province	-11.6307
type	-11.6307
¢	-11.6307
ó	-11.6307
čina	-11.6307
ɣən̪ɣ	-11.6307
θ	-11.6307
ο	-11.6307
ς	-11.6307
া	-11.6307
∼	-11.6307
▁-16.78%	-11.6307
▁18~19	-11.6307
▁2005-2006	-11.6307
▁2008-2009	-11.6307
▁2009-2010	-11.6307
▁2017~2018	-11.6307
▁35.93′′	-11.6307
▁36.86′′	-11.6307
▁37.2602389;	-11.6307
▁37.2602389°	-11.6307
▁4.2434	-11.6307
▁43.7285	-11.6307
▁55.00%	-11.6307
▁9,428	-11.6307
▁Achievement	-11.6307
▁Archdiocese	-11.6307
▁Azərbaycanca	-11.6307
▁BIBSYS	-11.6307
▁BOYS	-11.6307
▁Blue	-11.6307
▁British	-11.6307
▁Català	-11.6307
▁Cathcart	-11.6307
▁Channel	-11.6307
▁Closing	-11.6307
▁Concertos	-11.6307
▁Corporation	-11.6307
▁Dansk	-11.6307
▁Eileen	-11.6307
▁FLOW	-11.6307
▁Friedman	-11.6307
▁GDP	-11.6307
▁GND	-11.6307
▁Government	-11.6307
▁Greatest	-11.6307
▁Hello	-11.6307
▁ISNI	-11.6307
▁IgE	-11.6307
▁Josh	-11.6307
▁KING	-11.6307
▁KIXX	-11.6307
▁KOREA	-11.6307
▁LOVE	-11.6307
▁Mambo	-11.6307
▁Melayu	-11.6307
▁Midnight	-11.6307
▁Monster	-11.6307
▁Movie	-11.6307
▁NRG	-11.6307
▁OSCE	-11.6307
▁Off	-11.6307
▁Piano	-11.6307
▁Platinum	-11.6307
▁Research	-11.6307
▁Română	-11.6307
▁SONG	-11.6307
▁Seraph	-11.6307
▁Sloven	-11.6307
▁TAIJI	-11.6307
▁Together	-11.6307
▁Tuath	-11.6307
▁Tween	-11.6307
▁Türkçe	-11.6307
▁Understatement	-11.6307
▁Valenciana	-11.6307
▁Veckatimest	-11.6307
▁WorldCat	-11.6307
▁Writing	-11.6307
▁Yds	-11.6307
▁Yeon	-11.6307
▁ZARD	-11.6307
▁bonheur	-11.6307
▁doll	-11.6307
▁episode	-11.6307
▁jamais	-11.6307
▁portal	-11.6307
▁sbs	-11.6307
▁seul	-11.6307
▁strobus	-11.6307
▁tuath	-11.6307
▁Čeština	-11.6307
▁Đức	-11.6307
▁−8	-11.6307
▁ななみ	-11.6307
▁アゲハ蝶	-11.6307
▁サウダージ	-11.6307
▁メッセージ	-11.6307
▁寺田	-11.6307
▁가계도는	-11.6307
▁가고시마현	-11.6307
▁가르첸바	-11.6307
▁가마쿠라	-11.6307
▁가솔린	-11.6307
▁갖지	-11.6307
▁갯수는	-11.6307
▁거머쥐	-11.6307
▁걸림돌	-11.6307
▁게임프리크의	-11.6307
▁겔로라	-11.6307
▁견디기에	-11.6307
▁겸임	-11.6307
▁경제정책에	-11.6307
▁경제학부를	-11.6307
▁경희대학교	-11.6307
▁고려불화의	-11.6307
▁고집멸도	-11.6307
▁곳곳에	-11.6307
▁곳의	-11.6307
▁공공누리	-11.6307
▁공산주의	-11.6307
▁공숙장헌황후	-11.6307
▁괄호가	-11.6307
▁광역급행	-11.6307
▁국가민속문화재	-11.6307
▁국가보안법	-11.6307
▁국립대전현충원에	-11.6307
▁군인권센터	-11.6307
▁굶주	-11.6307
▁굿나잇	-11.6307
▁그라브산드	-11.6307
▁그렇지	-11.6307
▁그만큼	-11.6307
▁근민헌	-11.6307
▁근접발달영역	-11.6307
▁글러브	-11.6307
▁금토드라마	-11.6307
▁긍정적	-11.6307
▁깃대령	-11.6307
▁깊게	-11.6307
▁꼼수	-11.6307
▁꾀했다	-11.6307
▁꾸밈	-11.6307
▁꿈을	-11.6307
▁끌고	-11.6307
▁나가호리쓰루미료쿠치	-11.6307
▁나눔	-11.6307
▁나뉘어	-11.6307
▁남겼는데	-11.6307
▁낯선	-11.6307
▁내리쬐는	-11.6307
▁냉각	-11.6307
▁냐루코	-11.6307
▁넓은	-11.6307
▁넓히	-11.6307
▁넣어	-11.6307
▁넣었	-11.6307
▁넣은	-11.6307
▁네케르는	-11.6307
▁네티즌의	-11.6307
▁노동능력이	-11.6307
▁노르딕	-11.6307
▁농수산물	-11.6307
▁늑대	-11.6307
▁니코니코	-11.6307
▁다올부동산	-11.6307
▁다카라즈카	-11.6307
▁단봉낙타와	-11.6307
▁대기원시보	-11.6307
▁대동여지도	-11.6307
▁대탈출	-11.6307
▁대학수학능력시험	-11.6307
▁덩샤오핑	-11.6307
▁덩어리	-11.6307
▁데스노트	-11.6307
▁데포르티보	-11.6307
▁덴노즈	-11.6307
▁도깨비	-11.6307
▁도서정보자료실	-11.6307
▁도톤보리	-11.6307
▁독일어교육학과	-11.6307
▁동갑내기	-11.6307
▁동아일보	-11.6307
▁동아프리카	-11.6307
▁동질성을	-11.6307
▁되찾자	-11.6307
▁둘러싸	-11.6307
▁둘로	-11.6307
▁둘의	-11.6307
▁뒤늦게	-11.6307
▁듣기	-11.6307
▁들린다는	-11.6307
▁디스코그라피	-11.6307
▁디스코그래피	-11.6307
▁디스플레이	-11.6307
▁따듯한	-11.6307
▁라트비아	-11.6307
▁란타넘족	-11.6307
▁랭커스터	-11.6307
▁런닝맨	-11.6307
▁레스토랑	-11.6307
▁레인보우	-11.6307
▁레즈비언	-11.6307
▁로드리게스	-11.6307
▁로맨틱	-11.6307
▁롬바르디아	-11.6307
▁리듬에서	-11.6307
▁리듬체조	-11.6307
▁리라아트고등학교	-11.6307
▁리벤지스	-11.6307
▁리브르빌	-11.6307
▁마오쩌둥	-11.6307
▁막달리나	-11.6307
▁만코무니다	-11.6307
▁맞먹는	-11.6307
▁맞선	-11.6307
▁맡게	-11.6307
▁매사추세츠	-11.6307
▁맥도날드	-11.6307
▁멍크턴	-11.6307
▁메이플스토리	-11.6307
▁메첼더	-11.6307
▁메타크리틱	-11.6307
▁멜레티우스	-11.6307
▁멜로디	-11.6307
▁면협의회	-11.6307
▁모노레일	-11.6307
▁모니터링과	-11.6307
▁모차르트	-11.6307
▁목탁수구리는	-11.6307
▁몰장씨	-11.6307
▁몽펠리에	-11.6307
▁무너뜨	-11.6307
▁무심합도	-11.6307
▁묶어	-11.6307
▁문성왕	-11.6307
▁미나모토노	-11.6307
▁미라맥스	-11.6307
▁미얀마	-11.6307
▁민감하게	-11.6307
▁민음사	-11.6307
▁믿음을	-11.6307
▁바른미래당	-11.6307
▁박효신	-11.6307
▁반갤런	-11.6307
▁반달곰	-11.6307
▁받아들여	-11.6307
▁발령지인	-11.6307
▁밝은	-11.6307
▁밝히고	-11.6307
▁방송연예대상	-11.6307
▁방영제목	-11.6307
▁배재고등학교	-11.6307
▁배트우먼	-11.6307
▁백상예술대상에서	-11.6307
▁백석예술대학교	-11.6307
▁백종원의	-11.6307
▁버려진다	-11.6307
▁베네딕토	-11.6307
▁베르제즈	-11.6307
▁별주부를	-11.6307
▁별주부에게	-11.6307
▁병자호란	-11.6307
▁보우덴	-11.6307
▁볼티모어	-11.6307
▁부드럽	-11.6307
▁부면협의회	-11.6307
▁부속고등학교	-11.6307
▁부총재가	-11.6307
▁북서쪽	-11.6307
▁분광법	-11.6307
▁분데스리가	-11.6307
▁분쟁해결	-11.6307
▁분쟁해결절차	-11.6307
▁불러내기	-11.6307
▁불륜	-11.6307
▁불쾌감	-11.6307
▁불쾌한	-11.6307
▁불필요한	-11.6307
▁붙었다	-11.6307
▁붙이는	-11.6307
▁브루그만시아는	-11.6307
▁브리스톨	-11.6307
▁블러드	-11.6307
▁비결정질	-11.6307
▁비례대표	-11.6307
▁비센테	-11.6307
▁비숍	-11.6307
▁빅터	-11.6307
▁빅픽처엔터테인먼트	-11.6307
▁빈번히	-11.6307
▁빚는	-11.6307
▁빚을	-11.6307
▁빨간	-11.6307
▁빨리	-11.6307
▁빼앗긴	-11.6307
▁뽑힌	-11.6307
▁사르노프	-11.6307
▁삭망례가	-11.6307
▁살아나갈	-11.6307
▁살인사건	-11.6307
▁삶은	-11.6307
▁삶이	-11.6307
▁삿포로	-11.6307
▁상민들과	-11.6307
▁상트페테르부르크	-11.6307
▁상파울루	-11.6307
▁샌디에이고	-11.6307
▁샌프란시스코	-11.6307
▁생제르맹	-11.6307
▁섀도우	-11.6307
▁서울증산초등학교	-11.6307
▁서유럽	-11.6307
▁선행모음이	-11.6307
▁성희롱	-11.6307
▁세팍타크로	-11.6307
▁센니치마에	-11.6307
▁셔틀버스	-11.6307
▁소년구락부	-11.6307
▁솔퍼드	-11.6307
▁쇼트트랙	-11.6307
▁수동변속기	-11.6307
▁수많은	-11.6307
▁수목미니시리즈	-11.6307
▁수수께끼의	-11.6307
▁수원월드컵경기장	-11.6307
▁수있는	-11.6307
▁순간적으로	-11.6307
▁순식간에	-11.6307
▁순우리말	-11.6307
▁순직공무원	-11.6307
▁숨기	-11.6307
▁숨바꼭질	-11.6307
▁숫자합이	-11.6307
▁슈리몬	-11.6307
▁슈타디온	-11.6307
▁스리랑카	-11.6307
▁스쿨	-11.6307
▁스쿼시	-11.6307
▁스퀴머	-11.6307
▁스타더스트	-11.6307
▁스탈린	-11.6307
▁스탠퍼드	-11.6307
▁스테이지	-11.6307
▁스프링	-11.6307
▁승률은	-11.6307
▁시국선언	-11.6307
▁시라큐스대학교	-11.6307
▁시흥지구전투사령부	-11.6307
▁신성로마제국	-11.6307
▁신의주부	-11.6307
▁신인감독상	-11.6307
▁싱가포르	-11.6307
▁싱크로나이즈	-11.6307
▁쌀을	-11.6307
▁쌍무계약의	-11.6307
▁썰매	-11.6307
▁쏟아	-11.6307
▁아랍에미리트	-11.6307
▁아르슬란은	-11.6307
▁아르투르	-11.6307
▁아마존	-11.6307
▁아마추어	-11.6307
▁아시리아인	-11.6307
▁아우스트랄	-11.6307
▁아이네아스	-11.6307
▁아코디언	-11.6307
▁아키노부	-11.6307
▁아현역에서	-11.6307
▁악성코드	-11.6307
▁안개마을	-11.6307
▁않도록	-11.6307
▁않으며	-11.6307
▁않으면	-11.6307
▁않을	-11.6307
▁알베르트	-11.6307
▁알코올	-11.6307
▁앨리스	-11.6307
▁앰버	-11.6307
▁야노마미족	-11.6307
▁야마구치	-11.6307
▁얇게	-11.6307
▁얘기	-11.6307
▁억울한	-11.6307
▁언론정보학과	-11.6307
▁얻어맞	-11.6307
▁업그레이드된	-11.6307
▁없었고	-11.6307
▁에니그마	-11.6307
▁에드먼턴	-11.6307
▁에드워드	-11.6307
▁에른스트	-11.6307
▁에반게리온	-11.6307
▁에스토니아	-11.6307
▁에스파니아	-11.6307
▁엑스포츠뉴스	-11.6307
▁엠넷	-11.6307
▁엥겔스	-11.6307
▁연중행사	-11.6307
▁예카테린부르크	-11.6307
▁오버워치	-11.6307
▁올컬러	-11.6307
▁옮기	-11.6307
▁와이번스	-11.6307
▁외할아버지는	-11.6307
▁요쓰야	-11.6307
▁요아힘	-11.6307
▁용인경찰대학	-11.6307
▁용인경희대	-11.6307
▁우르바노	-11.6307
▁워털루	-11.6307
▁원활한	-11.6307
▁웨인	-11.6307
▁위니펙	-11.6307
▁유고슬라비아	-11.6307
▁유니폼	-11.6307
▁유비소프트	-11.6307
▁유튜브	-11.6307
▁이끄는	-11.6307
▁이르렀	-11.6307
▁이케구치	-11.6307
▁익명서를	-11.6307
▁인접한	-11.6307
▁인테르나치오날레	-11.6307
▁일렉트로	-11.6307
▁일반좌석	-11.6307
▁일으켰다	-11.6307
▁일제강점기	-11.6307
▁일찍이	-11.6307
▁잃었	-11.6307
▁자궁목	-11.6307
▁자동변속기	-11.6307
▁자문기관	-11.6307
▁자부자의	-11.6307
▁자음이중음자	-11.6307
▁자퀸토스	-11.6307
▁장학퀴즈에서	-11.6307
▁잭슨	-11.6307
▁저니맨	-11.6307
▁적잖은	-11.6307
▁적절히	-11.6307
▁전갈왕	-11.6307
▁전국노래자랑	-11.6307
▁전대미문의	-11.6307
▁정성현에게	-11.6307
▁정성현은	-11.6307
▁제너럴	-11.6307
▁조만식은	-11.6307
▁조선로동당	-11.6307
▁조칠숭	-11.6307
▁줄어들고	-11.6307
▁중화인민공화국	-11.6307
▁지네딘	-11.6307
▁지역회장단	-11.6307
▁진곡동으로	-11.6307
▁진선여자고등학교	-11.6307
▁찍어서	-11.6307
▁찬란한	-11.6307
▁채보훈	-11.6307
▁천문학	-11.6307
▁천천히	-11.6307
▁천추태후	-11.6307
▁청녕헌	-11.6307
▁청문회에서	-11.6307
▁청탁금지법	-11.6307
▁체육관은	-11.6307
▁초이노믹스	-11.6307
▁최고기온기록이	-11.6307
▁충족시킬	-11.6307
▁츠루나리	-11.6307
▁침해행위	-11.6307
▁칭롱몬	-11.6307
▁카데니오	-11.6307
▁카레곰	-11.6307
▁카르보바네츠	-11.6307
▁카츠누마	-11.6307
▁카톨리카	-11.6307
▁캄브리아	-11.6307
▁캔자스시티	-11.6307
▁캘빈	-11.6307
▁컨트롤	-11.6307
▁코디네이터	-11.6307
▁코퍼레이션	-11.6307
▁콜라보레이션	-11.6307
▁쿠빌라이는	-11.6307
▁쿤달리니	-11.6307
▁쿼터백들은	-11.6307
▁쿼터백에게	-11.6307
▁클라비어	-11.6307
▁클라이맥스	-11.6307
▁클랜시의	-11.6307
▁클로델	-11.6307
▁키요타카	-11.6307
▁타지키스탄	-11.6307
▁타케우치	-11.6307
▁탄탈루스	-11.6307
▁탈로나스	-11.6307
▁톱니같은	-11.6307
▁통일민주당	-11.6307
▁투르크메니스탄	-11.6307
▁툴루즈	-11.6307
▁튀어나와	-11.6307
▁트란스니스트리아	-11.6307
▁트래픽	-11.6307
▁특공대	-11.6307
▁티베트	-11.6307
▁파드리스	-11.6307
▁파운데이션	-11.6307
▁파푸아뉴기니	-11.6307
▁패밀리	-11.6307
▁패터슨	-11.6307
▁팬클럽	-11.6307
▁페니텐트	-11.6307
▁펜들턴	-11.6307
▁펼친	-11.6307
▁평사도법	-11.6307
▁포메이션	-11.6307
▁품종개량	-11.6307
▁프란츠	-11.6307
▁프랭클린	-11.6307
▁프리랜서	-11.6307
▁프리미엄	-11.6307
▁플라보노이드	-11.6307
▁플루오린화	-11.6307
▁하더라도	-11.6307
▁하드웨어와	-11.6307
▁하타노다이	-11.6307
▁한국예술종합학교	-11.6307
▁한국철도공사의	-11.6307
▁한림연예예술고등학교	-11.6307
▁한시네마	-11.6307
▁해미읍성의	-11.6307
▁핵실험	-11.6307
▁핸드볼	-11.6307
▁행정고등고시	-11.6307
▁험멜	-11.6307
▁헤로도토스	-11.6307
▁헨델	-11.6307
▁현대자동차	-11.6307
▁현장르포	-11.6307
▁현주엽	-11.6307
▁혐의가	-11.6307
▁형용동사	-11.6307
▁형제자매	-11.6307
▁호주파이낸셜리뷰	-11.6307
▁혼베쓰	-11.6307
▁홀쭉하	-11.6307
▁홍준표	-11.6307
▁화순사평	-11.6307
▁화합물의	-11.6307
▁환경문제를	-11.6307
▁황주홍	-11.6307
▁획기적	-11.6307
▁횡단	-11.6307
▁횡포	-11.6307
▁훈민정음	-11.6307
▁휴대전화용	-11.6307
▁흐른다	-11.6307
▁흑인	-11.6307
▁흔한	-11.6307
▁흩어	-11.6307
▁히파소스	-11.6307
▁힘겨	-11.6307
▁힘겹게	-11.6307
▁힘들어	-11.6307
ごえ	-11.6307
へ	-11.6307
も	-11.6307
わしい	-11.6307
ん	-11.6307
イ	-11.6307
ド	-11.6307
バスケ	-11.6307
ヒ	-11.6307
メ	-11.6307
ユラ	-11.6307
不	-11.6307
中無物	-11.6307
之	-11.6307
亨	-11.6307
仁	-11.6307
令	-11.6307
但	-11.6307
全珠利	-11.6307
化	-11.6307
去	-11.6307
唐	-11.6307
喜	-11.6307
圖	-11.6307
坐	-11.6307
壽	-11.6307
夜	-11.6307
奎	-11.6307
妙	-11.6307
學	-11.6307
実	-11.6307
嶺	-11.6307
廣	-11.6307
廳	-11.6307
弓仁	-11.6307
性	-11.6307
成	-11.6307
戶	-11.6307
於	-11.6307
春	-11.6307
智	-11.6307
松	-11.6307
梨	-11.6307
楊	-11.6307
氷	-11.6307
沒	-11.6307
洛	-11.6307
洹	-11.6307
源	-11.6307
漢	-11.6307
無心合道	-11.6307
瓦	-11.6307
町	-11.6307
目	-11.6307
石	-11.6307
禹	-11.6307
紅	-11.6307
而	-11.6307
聖	-11.6307
苦	-11.6307
茶	-11.6307
菜	-11.6307
著	-11.6307
葵	-11.6307
虛	-11.6307
話	-11.6307
諸	-11.6307
豫	-11.6307
賀	-11.6307
赤	-11.6307
路	-11.6307
遼	-11.6307
郞	-11.6307
都	-11.6307
鄕	-11.6307
酉	-11.6307
野	-11.6307
闘	-11.6307
關	-11.6307
陀	-11.6307
項	-11.6307
鬼	-11.6307
鶴	-11.6307
개그우먼	-11.6307
굳	-11.6307
꼈	-11.6307
끈	-11.6307
끓	-11.6307
나폴리	-11.6307
낼	-11.6307
넘겼다	-11.6307
높이뛰기	-11.6307
뇨	-11.6307
뇽	-11.6307
닌그라드	-11.6307
닭	-11.6307
도부쓰엔마에	-11.6307
독립유공자	-11.6307
돈키호테	-11.6307
딥	-11.6307
렁	-11.6307
맵	-11.6307
멧	-11.6307
밋	-11.6307
바꿈이	-11.6307
보건진료소	-11.6307
봤	-11.6307
비룡동	-11.6307
삼각형의	-11.6307
삼국사	-11.6307
샤브샤브	-11.6307
서울시립대학교	-11.6307
성장률	-11.6307
섹	-11.6307
셈	-11.6307
솜	-11.6307
스태프는	-11.6307
슴	-11.6307
싯	-11.6307
썸	-11.6307
쑤	-11.6307
아웃으로	-11.6307
악플러에	-11.6307
앙투안	-11.6307
애슬론	-11.6307
앨리슨은	-11.6307
엣	-11.6307
옌	-11.6307
오리지널	-11.6307
올피엄	-11.6307
요일요일이라면	-11.6307
웰	-11.6307
유플러스용	-11.6307
이라기보다는	-11.6307
인권선언	-11.6307
인삼공사	-11.6307
잎	-11.6307
자산운용	-11.6307
정후겸	-11.6307
젯	-11.6307
줬	-11.6307
최순실	-11.6307
춰	-11.6307
츨	-11.6307
칩	-11.6307
칼텍스	-11.6307
킷	-11.6307
텔레콤은	-11.6307
텔레텍	-11.6307
템펠	-11.6307
툼	-11.6307
파출소	-11.6307
펀드서비스	-11.6307
편무계약의	-11.6307
폼	-11.6307
핸드드	-11.6307
햇	-11.6307
▁Key	-11.6307
▁박시온	-11.6307
▁사헌부	-11.6307
▁에버랜드	-11.6307
▁이니셜	-11.6307
▁점령하고	-11.6307
▁증조부	-11.6307
▁테프라	-11.6307
1,2,3	-11.6307
HTML	-11.6307
istrict	-11.6307
localhost	-11.6307
▁2006-2007	-11.6307
▁KUSH	-11.6307
▁Korea	-11.6307
▁MBN	-11.6307
▁cris	-11.6307
▁little	-11.6307
▁강렬한	-11.6307
▁거북이	-11.6307
▁겨냥	-11.6307
▁과감히	-11.6307
▁나시오날	-11.6307
▁노무현	-11.6307
▁노유민	-11.6307
▁뉴사우스웨일스	-11.6307
▁니시자카	-11.6307
▁다듬	-11.6307
▁단말기	-11.6307
▁당연히	-11.6307
▁딘딘	-11.6307
▁떠났	-11.6307
▁루시드	-11.6307
▁마론파	-11.6307
▁마르세유	-11.6307
▁마천루	-11.6307
▁매학당	-11.6307
▁명세빈	-11.6307
▁무루혜	-11.6307
▁백두산	-11.6307
▁베르누이	-11.6307
▁보트경기	-11.6307
▁볼프강	-11.6307
▁부동산규제	-11.6307
▁부통령	-11.6307
▁불복해	-11.6307
▁블라디	-11.6307
▁뽑혔	-11.6307
▁사회복지비용	-11.6307
▁삽입	-11.6307
▁샹베리	-11.6307
▁서강대학교	-11.6307
▁세련된	-11.6307
▁세워진	-11.6307
▁송상현의	-11.6307
▁숭의초등학교	-11.6307
▁시내일반	-11.6307
▁시코쿠	-11.6307
▁쓰키미	-11.6307
▁안드로이드	-11.6307
▁안신애	-11.6307
▁역방향으로	-11.6307
▁오디오	-11.6307
▁오치아이	-11.6307
▁요르단	-11.6307
▁용구대로	-11.6307
▁일컬어	-11.6307
▁읽을거리	-11.6307
▁임실군	-11.6307
▁입학하여	-11.6307
▁잇따라	-11.6307
▁자취를	-11.6307
▁장례식	-11.6307
▁정보통신부	-11.6307
▁정약용	-11.6307
▁제일회장단	-11.6307
▁집어넣	-11.6307
▁청량읍의	-11.6307
▁초난강	-11.6307
▁최연소	-11.6307
▁최종결과	-11.6307
▁충분한	-11.6307
▁충족시키	-11.6307
▁카니발	-11.6307
▁카운티	-11.6307
▁태양계에서	-11.6307
▁포레스트	-11.6307
▁프리스타일	-11.6307
▁하버드	-11.6307
▁하워드	-11.6307
▁할리우드	-11.6307
▁해부루	-11.6307
▁행보는	-11.6307
▁헤이케의	-11.6307
▁화강암	-11.6307
▁희소성	-11.6307
겁	-11.6307
담당관	-11.6307
비지니스	-11.6307
뻑	-11.6307
이마미야	-11.6307
일레븐	-11.6307
잣	-11.6307
Capit	-11.6307
ə	-11.6307
▁"45"}]}	-11.6307
▁(1990)	-11.6307
▁BNF	-11.6307
▁TsD	-11.6307
▁ost	-11.6307
▁강길부	-11.6307
▁거두어	-11.6307
▁격투기	-11.6307
▁경제정책이	-11.6307
▁고고학적	-11.6307
▁공관에서는	-11.6307
▁균열이	-11.6307
▁녀석들	-11.6307
▁노회찬	-11.6307
▁누노세	-11.6307
▁다르며	-11.6307
▁대통령령으로	-11.6307
▁도우너	-11.6307
▁라벨을	-11.6307
▁로데오	-11.6307
▁마카오	-11.6307
▁모퉁이	-11.6307
▁미연형	-11.6307
▁민자당	-11.6307
▁박소영	-11.6307
▁벗어나지	-11.6307
▁벼슬	-11.6307
▁부크크	-11.6307
▁부평구	-11.6307
▁불합리	-11.6307
▁브로처	-11.6307
▁비타민	-11.6307
▁사비성을	-11.6307
▁섬세하게	-11.6307
▁아리우스주의자들	-11.6307
▁연예대상	-11.6307
▁예를들면	-11.6307
▁오현민	-11.6307
▁요헤이	-11.6307
▁유루혜	-11.6307
▁유스컵	-11.6307
▁윤현주	-11.6307
▁은평구	-11.6307
▁음절의	-11.6307
▁이스토라	-11.6307
▁정정공	-11.6307
▁좁아	-11.6307
▁즐겁	-11.6307
▁증언을	-11.6307
▁지진희가	-11.6307
▁쫓아냈	-11.6307
▁최고속도	-11.6307
▁추진하고	-11.6307
▁카오루	-11.6307
▁커버곡	-11.6307
▁태화강	-11.6307
▁테루지	-11.6307
▁트라이앵글	-11.6307
▁트로트	-11.6307
▁평균강수	-11.6307
▁포함되어있	-11.6307
▁허위라고	-11.6307
▁화학상	-11.6307
です	-11.6307
係	-11.6307
六	-11.6307
口	-11.6307
在	-11.6307
外	-11.6307
屯	-11.6307
度	-11.6307
康	-11.6307
木	-11.6307
槃	-11.6307
淵	-11.6307
爲	-11.6307
甲	-11.6307
盛	-11.6307
良	-11.6307
衡	-11.6307
趙	-11.6307
錫	-11.6307
開	-11.6307
黎	-11.6307
黒	-11.6307
갚	-11.6307
검토관	-11.6307
낫	-11.6307
눅	-11.6307
렘	-11.6307
룸	-11.6307
립기념일	-11.6307
보스토크	-11.6307
와랏테	-11.6307
정공휴일	-11.6307
짖	-11.6307
톨	-11.6307
피부염	-11.6307
하자마자	-11.6307
Super	-11.6307
ign	-11.6307
illboard	-11.6307
▁"43"}]}	-11.6307
▁2006-07	-11.6307
▁[48]	-11.6307
▁개입하여	-11.6307
▁길동씨	-11.6307
▁김도향	-11.6307
▁녹색을	-11.6307
▁다국적	-11.6307
▁대원공의	-11.6307
▁대전유성	-11.6307
▁뜯기는	-11.6307
▁발라드	-11.6307
▁보여주고	-11.6307
▁부드러	-11.6307
▁사간원	-11.6307
▁사냥꾼	-11.6307
▁상당히	-11.6307
▁신안군	-11.6307
▁실학자	-11.6307
▁아쿠아	-11.6307
▁오렌지	-11.6307
▁와버시	-11.6307
▁유니티	-11.6307
▁인프라	-11.6307
▁일러스트	-11.6307
▁입학한	-11.6307
▁전국동시	-11.6307
▁점령한	-11.6307
▁최유라	-11.6307
▁추구하는	-11.6307
▁추진하는	-11.6307
▁취소채권자의	-11.6307
▁커리어	-11.6307
▁쿠주아	-11.6307
▁프렌치	-11.6307
▁하성운	-11.6307
▁한석준	-11.6307
▁현역군인	-11.6307
世	-11.6307
과학기술	-11.6307
퍼센트	-11.6307
▁다이스케	-11.6307
▁지성규	-11.6307
아름다	-11.6307
Butte	-11.6307
Phineas	-11.6307
ʒ	-11.6307
▁"38"}]}	-11.6307
▁Universit	-11.6307
▁[28]	-11.6307
▁[70]	-11.6307
▁あなた	-11.6307
▁당하리	-11.6307
▁무리지어	-11.6307
▁미녀와	-11.6307
▁사용금지	-11.6307
▁성리학	-11.6307
▁손병흠	-11.6307
▁승하차	-11.6307
▁앞두고	-11.6307
▁오피스	-11.6307
▁육백에서	-11.6307
▁윤안인	-11.6307
▁제네바	-11.6307
▁지능이	-11.6307
▁천도교	-11.6307
▁천연기념물	-11.6307
▁축구선수	-11.6307
▁토바고	-11.6307
▁프레더릭	-11.6307
▁피어솔	-11.6307
ケ	-11.6307
ダ	-11.6307
務	-11.6307
振	-11.6307
来	-11.6307
池	-11.6307
決	-11.6307
流	-11.6307
熊津	-11.6307
英	-11.6307
葉	-11.6307
記	-11.6307
鎭	-11.6307
隆	-11.6307
경전철의정부역	-11.6307
대한매일신보	-11.6307
소방서	-11.6307
신봉동	-11.6307
어드벤처	-11.6307
예선탈락	-11.6307
자본주의	-11.6307
중국해	-11.6307
▁기상청	-11.6307
▁김포시	-11.6307
▁두드러	-11.6307
▁렛츠	-11.6307
▁면회로	-11.6307
▁민주자유당	-11.6307
▁서서히	-11.6307
▁성시경	-11.6307
▁야나세	-11.6307
▁예상되는	-11.6307
▁유선형	-11.6307
▁의혹은	-11.6307
▁이혜천	-11.6307
▁지키게	-11.6307
▁카밀라	-11.6307
▁한정되는	-11.6307
5.4)	-11.6307
▁127°	-11.6307
▁Hamster	-11.6307
▁감상할	-11.6307
▁고인범	-11.6307
▁공공사업을	-11.6307
▁공화당	-11.6307
▁기초자치단체장	-11.6307
▁남송과	-11.6307
▁노미네이트	-11.6307
▁떠돌	-11.6307
▁무산되었다	-11.6307
▁삼동면	-11.6307
▁성함은	-11.6307
▁수익감소	-11.6307
▁순간에	-11.6307
▁아쇼로	-11.6307
▁안톤은	-11.6307
▁요쓰바	-11.6307
▁정글의	-11.6307
▁최화정	-11.6307
今宮	-11.6307
스퀘어	-11.6307
쌍둥이	-11.6307
즈워스	-11.6307
▁Hits	-11.6307
▁그레나다	-11.6307
FBO	-11.6307
OVO	-11.6307
▁8~10	-11.6307
▁[68]	-11.6307
▁[96]	-11.6307
▁게놈	-11.6307
▁김동현	-11.6307
▁받기도	-11.6307
▁시흥군	-11.6307
▁작위는	-11.6307
▁재계약	-11.6307
▁타순이	-11.6307
▁테일러	-11.6307
프라임	-11.6307
호나목	-11.6307
Quality	-11.6307
USA	-11.6307
▁(88)	-11.6307
▁Prod	-11.6307
▁Special	-11.6307
▁강목체	-11.6307
▁기생사리	-11.6307
▁김홍일	-11.6307
▁나카노시마	-11.6307
▁법인체	-11.6307
▁설립되어진	-11.6307
▁세손의	-11.6307
▁소나타	-11.6307
▁아저씨	-11.6307
▁유형문화재	-11.6307
▁이득도	-11.6307
▁일평균기온	-11.6307
▁코오롱	-11.6307
▁킬로그램	-11.6307
▁팔리는가	-11.6307
▁항원에	-11.6307
▁호나우	-11.6307
▁황폐해	-11.6307
ォ	-11.6307
トモ	-11.6307
ニ	-11.6307
盜	-11.6307
지노귀	-11.6307
▁광개토	-11.6307
▁기초의회의원	-11.6307
▁렌탈	-11.6307
▁무산된	-11.6307
▁부강해	-11.6307
▁부팅이	-11.6307
▁세인트존	-11.6307
▁어려움	-11.6307
▁전세계	-11.6307
▁최상위	-11.6307
▁편리한	-11.6307
클러스터	-11.6307
훼손	-11.6307
Ferb	-11.6307
▁"12"}]}	-11.6307
▁53.1	-11.6307
▁가죽을	-11.6307
▁그래픽	-11.6307
▁마도카	-11.6307
▁분리하는	-11.6307
▁초반에	-11.6307
韓	-11.6307
달러를	-11.6307
소제동	-11.6307
응답	-11.6307
▁흘러	-11.6307
.76%	-11.6307
▁2000-10-	-11.6307
▁MIT	-11.6307
▁가리켜	-11.6307
▁가운데서도	-11.6307
▁경기력에	-11.6307
▁글라라	-11.6307
▁때때로	-11.6307
▁방위병	-11.6307
▁스트레스	-11.6307
▁옴니버스	-11.6307
▁은하해방전선	-11.6307
▁지키지	-11.6307
▁카르노	-11.6307
칼슘	-11.6307
<>[]	-11.6307
ppm	-11.6307
▁구빈세	-11.6307
▁그것들은	-11.6307
▁나나미	-11.6307
▁대분화	-11.6307
▁레지나	-11.6307
▁마르델플라타	-11.6307
▁수단으로서	-11.6307
▁지키기	-11.6307
▁토리노	-11.6307
▁토시야	-11.6307
▁혜숙	-11.6307
地區	-11.6307
삐	-11.6307
▁Class	-11.6307
▁Featur	-11.6307
▁[24]	-11.6307
▁계보를	-11.6307
▁다니마치	-11.6307
▁다니엘	-11.6307
▁선거인수	-11.6307
▁왕관을	-11.6307
▁우울증	-11.6307
▁짱구	-11.6307
▁클라우	-11.6307
▁휘발	-11.6307
형무소	-11.6307
▁서버와	-11.6307
wedish	-11.6307
ymbol	-11.6307
▁ゆう	-11.6307
▁골득실	-11.6307
▁기수열외	-11.6307
▁사회과학대학	-11.6307
▁연설을	-11.6307
▁와타리	-11.6307
▁워킹	-11.6307
▁원피스	-11.6307
▁유언을	-11.6307
▁헌법재판소	-11.6307
other	-11.6307
▁[23]	-11.6307
▁[25]	-11.6307
▁고등래퍼	-11.6307
▁권총들	-11.6307
▁대동아	-11.6307
▁대목구	-11.6307
▁돈바스	-11.6307
▁물러나겠다고	-11.6307
▁오미야	-11.6307
▁펜싱	-11.6307
▁혜택	-11.6307
가요대상	-11.6307
▁근접	-11.6307
▁리소토	-11.6307
▁역분사	-11.6307
▁차적에서	-11.6307
▁홀리데이	-11.6307
ジ	-11.6307
フ	-11.6307
世界	-11.6307
分別	-11.6307
尹安	-11.6307
彼	-11.6307
生	-11.6307
아무개	-11.6307
▁[15]	-11.6307
▁가난한	-11.6307
▁반사율	-11.6307
▁숭실중학교	-11.6307
▁에가시라	-11.6307
,100,000	-11.6307
▁신상리	-11.6307
▁아라시	-11.6307
▁장래에	-11.6307
▁촉진	-11.6307
▁카마로	-11.6307
▁트레이닝	-11.6307
▁후쿠오카	-11.6307
▁[69]	-11.6307
▁기운을	-11.6307
▁노부히로	-11.6307
▁웨스턴	-11.6307
▁유저는	-11.6307
▁이데아	-11.6307
▁이종현	-11.6307
▁인민을	-11.6307
▁Brea	-11.6307
▁just	-11.6307
▁다이아몬	-11.6307
▁아테나	-11.6307
▁이득을	-11.6307
昌原	-11.6307
로스팅	-11.6307
정원회	-11.6307
▁정역은	-11.6307
▁포도주	-11.6307
▁함포의	-11.6307
,580	-11.6307
1~2	-11.6307
riend	-11.6307
▁받던	-11.6307
▁세우고	-11.6307
▁지오와	-11.6307
上雩	-11.6307
▁무자비하	-11.6307
▁아마도	-11.6307
▁이이토모	-11.6307
▁홍인한	-11.6307
=236	-11.6307
▁오로치	-11.6307
▁울산광역시	-11.6307
▁인천광역시	-11.6307
殺	-11.6307
파운드	-11.6307
▁1~10	-11.6307
range	-11.6307
▁감정이	-11.6307
▁기분을	-11.6307
▁리프트	-11.6307
▁비광을	-11.6307
▁시골의	-11.6307
▁시공간	-11.6307
▁찰리	-11.6307
▁청와대	-11.6307
ncy	-11.6307
▁장군가를	-11.6307
▁체칠리아	-11.6307
총지휘	-11.6307
▁독일민법전에서	-11.6307
▁Four	-11.6307
▁ryo	-11.6307
▁렌즈	-11.6307
▁바리공주	-11.6307
▁박선우	-11.6307
▁식료	-11.6307
▁어간에	-11.6307
▁콘스탄	-11.6307
▁걸리버스	-11.6307
▁국회사무처	-11.6307
▁다스리	-11.6307
▁신비한	-11.6307
Mich	-11.6307
▁강철의	-11.6307
▁모티브로	-11.6307
▁발레리	-11.6307
▁북아일랜드	-11.6307
▁시블리	-11.6307
정류장	-11.6307
▁유입되기	-11.6307
▁최후의	-11.6307
모니터	-11.6307
▁2005.04	-11.6307
▁대처법	-11.6307
▁모형을	-11.6307
▁방사선의	-11.6307
▁안타까	-11.6307
▁약정에	-11.6307
▁재산을	-11.6307
▁켈트	-11.6307
▁하체가	-11.6307
女	-11.6307
기자협회	-11.6307
▁세워졌	-11.6307
ssey	-11.6307
▁임용된	-11.6307
▁깃발	-11.6307
▁물러나	-11.6307
▁세웠는지	-11.6307
Cam	-11.6307
▁개개인의	-11.6307
▁드라이브	-11.6307
▁조식이	-11.6307
▁초과하는	-11.6307
▁타자로	-11.6307
▁티에리	-11.6307
梁氏	-11.6307
▁GBK	-11.6307
▁[67]	-11.6307
▁거슬러	-11.6307
▁김현중은	-11.6307
▁배트맨	-11.6307
▁크리스토퍼	-11.6307
▁필요합니다	-11.6307
ボク	-11.6307
▁GHQ	-11.6307
▁공방전	-11.6307
▁필라테스	-11.6307
▁[65]	-11.6307
▁기란성	-11.6307
▁변신을	-11.6307
▁심청이는	-11.6307
▁십자군	-11.6307
▁애슐리	-11.6307
▁잔혹	-11.6307
▁처형당한	-11.6307
▁허용됨	-11.6307
ンボ	-11.6307
▁메모리얼	-11.6307
▁반절하자	-11.6307
▁이시노	-11.6307
케네디	-11.6307
▁김수빈	-11.6307
▁대구광역시	-11.6307
▁면허	-11.6307
▁불과하다는	-11.6307
▁수준으로	-11.6307
▁신체에	-11.6307
▁접어들면서	-11.6307
▁동행의	-11.6307
strange	-11.6307
▁발굴	-11.6307
▁불리고	-11.6307
▁플레어	-11.6307
여지기	-11.6307
▁탄산가스	-11.6307
체육대회	-11.6307
rpsk	-11.6307
▁게이힌	-11.6307
종조부	-11.6307
▁볼리비아	-11.6307
▁울림엔터테인먼트	-11.6307
▁중립을	-11.6307
field	-11.6307
gú	-11.6307
▁글로벌	-11.6307
▁마쓰야마	-11.6307
▁실용음악	-11.6307
▁Dé	-11.6307
▁명확하지	-11.6307
▁자선단체	-11.6307
두드림	-11.6307
▁손기정	-11.6307
▁쉬렉	-11.6307
▁얼스터	-11.6307
とう	-11.6307
める	-11.6307
생물학에서	-11.6307
▁용도로	-11.6307
▁음절말에	-11.6307
▁문정왕후	-11.6307
erry	-11.6307
▁나가사키	-11.6307
▁바닥에	-11.6307
▁브래	-11.6307
▁접합	-11.6307
▁포기한	-11.6307
신해철	-11.6307
▁모험담	-11.6307
▁인디언자리	-11.6307
▁도시철도공사	-11.6307
▁우수연기상	-11.6307
기관인	-11.6307
▁북아메리카에	-11.6307
アル	-11.6307
▁자카르타	-11.6307
비비안	-11.6307
직한	-11.6307
=238	-11.6307
ENT	-11.6307
▁Archived	-11.6307
▁미야케	-11.6307
から	-11.6307
ence	-11.6307
▁[66]	-11.6307
▁시조로	-11.6307
▁하계올림픽에	-11.6307
▁돌아왔다	-11.6307
▁메달리스트	-11.6307
▁용도를	-11.6307
▁종자는	-11.6307
▁루마니아	-11.6307
▁융해	-11.6307
▁Stor	-11.6307
▁브리튼	-11.6307
▁공식사이트	-11.6307
▁궁핍	-11.6307
▁소프트볼	-11.6307
▁효력을	-11.6307
通	-11.6307
지구대의	-11.6307
▁루치아	-11.6307
▁상당수	-11.6307
▁순직한	-11.6307
▁심장부로	-11.6307
▁this	-11.6307
▁아키히로	-11.6307
▁조선인민군	-11.6307
여열반	-11.6307
▁보완해	-11.6307
▁방문일이	-11.6307
▁엔딩	-11.6307
▁영접	-11.6307
▁제라드	-11.6307
▁충족하	-11.6307
▁프란치스카	-11.6307
@\\	-11.6307
esident	-11.6307
▁강서구	-11.6307
▁불이익	-11.6307
스크램	-11.6307
▁구축함	-11.6307
▁효율적으로	-11.6307
닥터	-11.6307
▁알로고스	-11.6307
▁생겨났다	-11.6307
▁원더케이	-11.6307
▁유성은	-11.6307
▁파비올라	-11.6307
▁웨이백	-11.6307
▁인정되기	-11.6307
▁타카하시	-11.6307
▁너무합니다	-11.6307
▁자리하고	-11.6307
룬궁	-11.6307
▁무의식적으로	-11.6307
▁127.1099806°	-11.6307
▁거미줄	-11.6307
▁국회위원	-11.6307
산지대	-11.6307
행정기관	-11.6307
▁득표	-11.6307
▁임팩트	-11.6307
▁72.2	-11.6307
▁류타	-11.6307
▁오카모토	-11.6307
▁타자는	-11.6307
▁생화학	-11.6307
▁그것도	-11.6307
▁티스토리	-11.6307
갈색이	-11.6307
▁전구를	-11.6307
▁채권자에게	-11.6307
144.6	-11.6307
▁모리모토	-11.6307
安ら	-11.6307
정책연구	-11.6307
▁바꾼	-11.6307
▁임대인	-11.6307
▁증득	-11.6307
▁트랙리스트	-11.6307
▁행운	-11.6307
▁놓으면	-11.6307
▁알아낸	-11.6307
▁언남로	-11.6307
▁유일하게	-11.6307
▁천명훈	-11.6307
Jung	-11.6307
▁0-4	-11.6307
▁09:00	-11.6307
▁11.8%	-11.6307
▁나고야	-11.6307
▁잃어버린	-11.6307
▁리메이크	-11.6308
▁순수한	-11.6308
▁요새	-11.6308
▁충실히	-11.6308
▁남쪽손	-11.6308
▁뮤직뱅크	-11.6308
▁펼쳤다고	-11.6308
▁련화	-11.6308
지원센터	-11.6308
▁물리친	-11.6308
▁호흡	-11.6308
▁홍문관	-11.6308
▁백악관	-11.6308
靈光	-11.6308
▁감소시키	-11.6308
▁뉴캐슬	-11.6308
▁신구장	-11.6308
▁유니버스	-11.6308
▁카즈히코	-11.6308
났던	-11.6308
엔젤	-11.6308
▁선생님은	-11.6308
▁이재룡	-11.6308
▁중앙아시아	-11.6308
구한말	-11.6308
▁몬스터	-11.6308
▁무인시대	-11.6308
▁성폭행	-11.6308
▁미디어오늘	-11.6308
▁밝혀진다	-11.6308
86+	-11.6308
▁179-3	-11.6308
▁화요일	-11.6308
리서치	-11.6308
판암동	-11.6308
호크스	-11.6308
▁가톨릭교회	-11.6308
▁켄스케	-11.6308
▁파트너	-11.6308
▁시인인	-11.6308
▁아덴성을	-11.6308
▁유래했다고	-11.6308
▁허용되지	-11.6308
▁돌궐	-11.6308
▁듀오	-11.6308
▁벌어진	-11.6308
▁사주를	-11.6308
▁예상했던	-11.6308
▁평의회	-11.6308
연수원	-11.6308
▁Aero	-11.6308
▁sing	-11.6308
▁근무했던	-11.6308
▁유아인	-11.6308
▁정승환	-11.6308
▁최하위	-11.6308
▁암호술	-11.6308
▁샤먼	-11.6308
▁확산되고	-11.6308
▁공세에	-11.6308
▁낮추	-11.6308
▁스기모토	-11.6308
회가량	-11.6308
▁무한한	-11.6308
▁상민의	-11.6308
프로세서	-11.6308
,339	-11.6308
alism	-11.6308
▁일본에선	-11.6308
병여단	-11.6308
lity	-11.6308
▁동프랑크	-11.6308
▁일으킨	-11.6308
▁"2"}]}	-11.6308
▁9.3%	-11.6308
▁상대팀은	-11.6308
▁대체하려고	-11.6308
,847	-11.6308
▁식별	-11.6308
▁이스라엘인들	-11.6308
▁일평균	-11.6308
구성우체국	-11.6308
▁아우디	-11.6308
▁고원준	-11.6308
▁동굴	-11.6308
▁코바야시	-11.6308
~1494	-11.6308
▁세븐	-11.6308
▁안녕	-11.6308
▁안랩	-11.6308
天使	-11.6308
출하량	-11.6308
▁목회자	-11.6308
비서관	-11.6308
cilia	-11.6308
▁동탁	-11.6308
▁국민연합	-11.6308
▁밝혀져	-11.6308
Claud	-11.6308
▁경우에만	-11.6308
▁간단히	-11.6308
▁국가대항전	-11.6308
▁국가무형문화재	-11.6308
▁실질적	-11.6308
▁[42]	-11.6308
▁애틀랜타	-11.6308
▁유해는	-11.6308
▁프리미어리그	-11.6308
▁기둥처럼	-11.6308
▁발도르	-11.6308
▁서프라이즈	-11.6308
▁세분화	-11.6308
▁야생마	-11.6308
반영한	-11.6308
▁다낭	-11.6308
>12</	-11.6308
▁Go	-11.6308
▁김윤덕	-11.6308
~1544	-11.6308
▁그러므로	-11.6308
▁케빈	-11.6308
▁Golden	-11.6308
▁노다지	-11.6308
溪	-11.6308
澄	-11.6308
박지연	-11.6308
▁김지혜	-11.6308
▁빈곤	-11.6308
▁일주일	-11.6308
▁하야시	-11.6308
▁죽전로	-11.6308
▁0.005	-11.6308
▁거절했	-11.6308
도루를	-11.6308
▁류시	-11.6308
▁안토니	-11.6308
▁혼동	-11.6308
▁Yoon	-11.6308
▁행군	-11.6308
▁입장에서	-11.6308
▁코하시	-11.6308
大內	-11.6308
됨으로써	-11.6308
,247	-11.6308
大政	-11.6308
▁시트론	-11.6308
▁찾아볼	-11.6308
▁척추	-11.6308
빌딩	-11.6308
▁0-2	-11.6308
▁베풀	-11.6308
ladi	-11.6308
▁사랑합니다	-11.6308
▁오가나	-11.6308
▁작위를	-11.6308
▁지눌	-11.6308
▁변호사가	-11.6308
▁카페가	-11.6308
▁병합	-11.6308
▁0.4%	-11.6308
▁우체국명	-11.6308
뮤니	-11.6308
▁글로브	-11.6308
결정권이	-11.6308
▁본관은	-11.6308
▁바실리	-11.6308
▁법률관계는	-11.6308
▁서울고법	-11.6308
▁Dead	-11.6308
보궐선거	-11.6308
▁유저들에게	-11.6308
▁피고인	-11.6308
[34]	-11.6308
▁2.3	-11.6308
▁김종필	-11.6308
▁무거운	-11.6308
▁아슬라	-11.6308
▁넘겨	-11.6308
▁마사유키	-11.6308
inter	-11.6308
▁다르다	-11.6308
▁미즈노	-11.6308
▁간주되는	-11.6308
▁관측되는	-11.6308
▁베이직	-11.6308
▁아쉽	-11.6308
▁이광조	-11.6308
▁하나금융	-11.6308
みな	-11.6308
간접적	-11.6308
▁레티아	-11.6308
지사로서	-11.6308
ION	-11.6309
▁김천교	-11.6309
▁대사헌	-11.6309
▁연합군은	-11.6309
▁편입되면서	-11.6309
▁인정받아	-11.6309
제르바	-11.6309
게르마니아	-11.6309
▁응옥	-11.6309
▁척살	-11.6309
▁1921	-11.6309
▁정답	-11.6309
네이터	-11.6309
▁문제점을	-11.6309
▁사항은	-11.6309
▁회복시켜	-11.6309
▁978-89-252-8	-11.6309
▁드래곤즈	-11.6309
ân	-11.6309
▁(63	-11.6309
불사조	-11.6309
▁by	-11.6309
▁돌아갈	-11.6309
▁군산고등학교	-11.6309
▁행성을	-11.6309
▁1-0	-11.6309
▁법무부	-11.6309
▁키루스	-11.6309
▁17:30	-11.6309
▁트위스	-11.6309
▁11.2%	-11.6309
▁박사과정	-11.6309
여자고등학교	-11.6309
▁맥락	-11.6309
▁코트디	-11.6309
혜능	-11.6309
71",	-11.6309
▁달빛	-11.6309
▁본격적으로	-11.6309
레이션	-11.6309
cess	-11.6309
▁충남	-11.6309
▁필요하다	-11.6309
>2004	-11.6309
▁도자이	-11.6309
▁웨스트	-11.6309
▁Sec	-11.6309
▁말자는	-11.6309
▁넘어갔다	-11.6309
Duke	-11.6309
▁드러난	-11.6309
▁주간드라마	-11.6309
Once	-11.6309
▁퀘이	-11.6309
(89)	-11.6309
▁수모를	-11.6309
▁카츠야	-11.6309
800,000	-11.6309
▁프라하	-11.6309
채무의	-11.6309
Intro	-11.6309
code	-11.6309
▁Lo	-11.6309
▁보여주었	-11.6309
▁Yu	-11.6309
취온	-11.6309
수카르노	-11.6309
▁형용사로부터	-11.6309
▁네이버	-11.6309
▁라이벌	-11.6309
▁바닷	-11.6309
주자사를	-11.6309
▁협박	-11.6309
▁스파이크	-11.6309
▁이해했어	-11.6309
▁시청자들의	-11.6309
▁지역예선	-11.6309
llow	-11.6309
방울	-11.6309
▁스토크	-11.6309
▁‘...	-11.6309
▁정동영	-11.6309
야나기	-11.6309
▁hone	-11.6309
▁증언하였	-11.6309
81",	-11.6309
icles	-11.6309
99.0	-11.6309
메트로	-11.6309
▁포르노	-11.6309
▁루블리스	-11.6309
캄파	-11.6309
바디에	-11.6309
▁김태훈	-11.6309
우라라	-11.6309
▁솔직	-11.6309
▁탓에	-11.6309
▁태백	-11.6309
▁HLC	-11.6309
▁3.3%	-11.6309
▁(37)	-11.6309
▁DSB	-11.6309
▁EMI	-11.6309
▁Tur	-11.6309
머런	-11.6309
>7</	-11.6309
▁Spec	-11.6309
▁흐르게	-11.6309
▁발생하자	-11.6309
▁소속되었던	-11.6309
▁리하르트	-11.6309
▁법정	-11.6309
▁야수의	-11.6309
▁질풍	-11.6309
▁흥나는	-11.6309
▁웨이브	-11.631
▁할아버지	-11.631
▁박나래	-11.631
▁지면을	-11.631
0,000–1,	-11.631
▁구성되어있을까	-11.631
▁국민대회	-11.631
▁기부금을	-11.631
▁학부모	-11.631
▁Films	-11.631
▁부여받	-11.631
▁대공황	-11.631
▁대구시장	-11.631
▁서울예술대학교	-11.631
▁수준의	-11.631
▁안젤라	-11.631
친위대	-11.631
▁올라온	-11.631
▁첫사랑	-11.631
▁유로컵	-11.631
▁가야로	-11.631
▁평균율	-11.631
東明	-11.631
크로스	-11.631
▁Boy	-11.631
▁4.4%	-11.631
▁PNG	-11.631
▁HLD	-11.631
▁아르테	-11.631
▁왕태자	-11.631
▁방사포	-11.631
▁소득의	-11.631
시코야마	-11.631
▁드롭	-11.631
▁전쟁준비	-11.631
▁자리에서	-11.631
▁라울	-11.631
▁충청	-11.631
▁농약	-11.631
▁세부적인	-11.631
▁평화적인	-11.631
ession	-11.631
▁YO	-11.631
▁Part	-11.631
▁악몽	-11.631
▁위협적인	-11.631
▁Ter	-11.631
▁청춘드라마	-11.631
▁지바현	-11.631
타워의	-11.631
▁오랜성을	-11.631
▁페이지	-11.631
만년전	-11.631
▁강수연	-11.631
▁1,000,000	-11.631
▁공장에서	-11.631
▁공기태	-11.631
▁행할	-11.631
▁불확실성	-11.631
▁성욕	-11.631
▁페퍼	-11.631
▁극단적	-11.631
▁반절상자	-11.631
▁오현경	-11.631
▁관료	-11.631
▁묘지	-11.631
▁공주로	-11.631
▁습도	-11.631
▁원칙적으로	-11.631
-10-2	-11.631
▁던진	-11.631
▁소셜	-11.631
▁15′	-11.631
▁2009-10	-11.631
▁짐승	-11.631
▁유배되어	-11.631
▁짓기	-11.631
탐정	-11.631
▁동일본	-11.631
▁요나라	-11.631
▁처녀	-11.631
▁황홀	-11.631
했는지	-11.631
▁사라센	-11.631
▁쪽을	-11.631
▁높았으며	-11.631
▁맹타	-11.631
▁놀라운	-11.631
소득	-11.631
▁다닐	-11.631
rds	-11.631
버리고	-11.631
▁테베	-11.631
▁씨스타	-11.631
▁머물며	-11.631
▁알콜	-11.631
▁청소년드라마	-11.631
▁토마스	-11.631
강원영동	-11.631
▁세이슈	-11.6311
▁레이싱	-11.6311
▁김정남	-11.6311
▁김종배	-11.6311
▁알아내	-11.6311
▁프리스트	-11.6311
▁동남아	-11.6311
▁온라인	-11.6311
UNG	-11.6311
▁크록	-11.6311
▁필요했던	-11.6311
▁마찰	-11.6311
▁본격	-11.6311
▁크리스천	-11.6311
體	-11.9015
써	-12.0487
켜	-12.4933
š	-12.5485
넥	-12.5741
탁	-12.5828
멸	-12.5887
Q	-12.591
핀	-12.5933
맥	-12.5943
뮤	-12.597
뤼	-12.5974
놀	-12.5974
롱	-12.5975
土	-12.5976
煩	-12.5976
非	-12.5976
꿀	-12.5976
끗	-12.5976
닫	-12.5976
밟	-12.5976
벅	-12.5976
봐	-12.5976
쿡	-12.5976
톈	-12.5976
홉	-12.5976
ゆ	-12.5976
겹	-12.5976
웹	-12.5976
썼	-12.5977
핑	-12.5983
굴	-12.5988
낮	-12.5995
펠	-12.6001
붕	-12.6003
낭	-12.6003
꾼	-12.6004
놈	-12.6006
숭	-12.6006
쌓	-12.6007
맘	-12.6007
멜	-12.6007
Z	-12.6007
틈	-12.6007
싶	-12.6008
접	-12.6009
뜻	-12.6009
찾	-12.6012
답	-12.6017
밑	-12.6018
헬	-12.602
셰	-12.602
젖	-12.602
좀	-12.602
뭘	-12.602
춤	-12.602
캔	-12.602
못	-12.6026
콩	-12.6026
낙	-12.6028
톰	-12.6028
쌍	-12.6028
왜	-12.6031
↔	-12.6033
곽	-12.6033
괴	-12.6034
읽	-12.6036
쉽	-12.6037
밤	-12.6039
끝	-12.6039
팬	-12.6042
큰	-12.6049
〈	-12.605
잘	-12.605
즉	-12.605
―	-12.6051
‘	-12.6052
털	-12.6194
났	-12.6236
닥	-12.6246
′	-12.6248
팟	-12.6265
넷	-12.6268
확	-12.6272
짓	-12.6276
껍	-12.6277
롬	-12.6279
므	-12.628
펴	-12.6286
슐	-12.6292
윙	-12.6295
걱	-12.6298
렵	-12.63
롯	-12.6301
괄	-12.6301
릉	-12.6301
눌	-12.6302
랍	-12.6302
븐	-12.6303
녕	-12.6303
랩	-12.6303
뱅	-12.6303
使	-12.6303
엇	-12.6303
흡	-12.6304
井	-12.6305
맷	-12.6305
콧	-12.6305
ú	-12.6305
é	-12.6305
첨	-12.6305
듭	-12.6305
グ	-12.6306
五	-12.6306
ŋ	-12.6306
雩	-12.6306
즐	-12.6306
尹	-12.6306
儉	-12.6306
初	-12.6306
껴	-12.6306
슘	-12.6306
튠	-12.6306
훼	-12.6306
앵	-12.6306
ĕ	-12.6306
プ	-12.6306
尋	-12.6306
熊	-12.6306
般	-12.6306
響	-12.6306
す	-12.6306
今	-12.6306
昌	-12.6306
첼	-12.6306
ì	-12.6306
̤	-12.6306
η	-12.6306
τ	-12.6306
Б	-12.6306
в	-12.6306
г	-12.6306
л	-12.6306
с	-12.6306
х	-12.6306
ъ	-12.6306
ம	-12.6306
ி	-12.6306
യ	-12.6306
ῥ	-12.6306
エ	-12.6306
乞	-12.6306
像	-12.6306
允	-12.6306
勃	-12.6306
卯	-12.6306
器	-12.6306
国	-12.6306
対	-12.6306
對	-12.6306
左	-12.6306
帖	-12.6306
弗	-12.6306
徳	-12.6306
悩	-12.6306
手	-12.6306
指	-12.6306
敬	-12.6306
料	-12.6306
星	-12.6306
映	-12.6306
普	-12.6306
曇	-12.6306
會	-12.6306
様	-12.6306
止	-12.6306
民	-12.6306
沈	-12.6306
油	-12.6306
派	-12.6306
渥	-12.6306
灘	-12.6306
烏	-12.6306
畵	-12.6306
的	-12.6306
禁	-12.6306
竹	-12.6306
粒	-12.6306
耕	-12.6306
脱	-12.6306
臨	-12.6306
舊	-12.6306
蜜	-12.6306
訛	-12.6306
試	-12.6306
軒	-12.6306
迦	-12.6306
送	-12.6306
露	-12.6306
騒	-12.6306
뇩	-12.6306
딕	-12.6306
먁	-12.6306
멋	-12.6306
反	-12.6306
ʍ	-12.6306
ヴ	-12.6306
佐	-12.6306
堂	-12.6306
嫌	-12.6306
希	-12.6306
我	-12.6306
敏	-12.6306
断	-12.6306
諒	-12.6306
賴	-12.6306
鐘	-12.6306
顯	-12.6306
괘	-12.6306
괵	-12.6306
깜	-12.6306
꽹	-12.6306
뒀	-12.6306
멩	-12.6306
뱀	-12.6306
빵	-12.6306
짊	-12.6306
챌	-12.6306
起	-12.6306
뚤	-12.6306
밍	-12.6306
à	-12.6307
ê	-12.6307
ð	-12.6307
ö	-12.6307
ü	-12.6307
ū	-12.6307
ų	-12.6307
ư	-12.6307
ɣ	-12.6307
̄	-12.6307
Δ	-12.6307
β	-12.6307
γ	-12.6307
λ	-12.6307
ό	-12.6307
М	-12.6307
С	-12.6307
д	-12.6307
е	-12.6307
и	-12.6307
к	-12.6307
т	-12.6307
ִ	-12.6307
ד	-12.6307
ש	-12.6307
ת	-12.6307
ت	-12.6307
ج	-12.6307
د	-12.6307
ه	-12.6307
و	-12.6307
ک	-12.6307
ۆ	-12.6307
ং	-12.6307
ব	-12.6307
ল	-12.6307
த	-12.6307
ழ	-12.6307
்	-12.6307
ം	-12.6307
മ	-12.6307
ല	-12.6307
ള	-12.6307
ാ	-12.6307
ท	-12.6307
ย	-12.6307
ไ	-12.6307
ᄉ	-12.6307
ᅪ	-12.6307
ᆞ	-12.6307
ṳ	-12.6307
ả	-12.6307
ợ	-12.6307
ἄ	-12.6307
※	-12.6307
↓	-12.6307
∝	-12.6307
≥	-12.6307
▶	-12.6307
◀	-12.6307
〔	-12.6307
〜	-12.6307
え	-12.6307
げ	-12.6307
せ	-12.6307
そ	-12.6307
ど	-12.6307
ひ	-12.6307
べ	-12.6307
ほ	-12.6307
む	-12.6307
ゅ	-12.6307
コ	-12.6307
ゴ	-12.6307
ツ	-12.6307
ト	-12.6307
ナ	-12.6307
ベ	-12.6307
ポ	-12.6307
ヤ	-12.6307
ユ	-12.6307
ョ	-12.6307
レ	-12.6307
丞	-12.6307
乳	-12.6307
云	-12.6307
亭	-12.6307
介	-12.6307
仲	-12.6307
件	-12.6307
休	-12.6307
伽	-12.6307
佃	-12.6307
体	-12.6307
佳	-12.6307
俊	-12.6307
信	-12.6307
修	-12.6307
児	-12.6307
兒	-12.6307
入	-12.6307
典	-12.6307
凛	-12.6307
凡	-12.6307
凶	-12.6307
刊	-12.6307
刺	-12.6307
副	-12.6307
劉	-12.6307
動	-12.6307
勳	-12.6307
勿	-12.6307
卨	-12.6307
印	-12.6307
厳	-12.6307
取	-12.6307
只	-12.6307
司	-12.6307
合	-12.6307
向	-12.6307
和	-12.6307
哀	-12.6307
品	-12.6307
哥	-12.6307
哲	-12.6307
商	-12.6307
喰	-12.6307
均	-12.6307
坊	-12.6307
垣	-12.6307
埜	-12.6307
培	-12.6307
報	-12.6307
塘	-12.6307
塚	-12.6307
塞	-12.6307
境	-12.6307
增	-12.6307
士	-12.6307
声	-12.6307
夏	-12.6307
奇	-12.6307
奈	-12.6307
奸	-12.6307
好	-12.6307
委	-12.6307
娟	-12.6307
婁	-12.6307
嬪	-12.6307
室	-12.6307
寄	-12.6307
察	-12.6307
寧	-12.6307
寶	-12.6307
岐	-12.6307
岸	-12.6307
崎	-12.6307
崩	-12.6307
巨	-12.6307
布	-12.6307
帰	-12.6307
幕	-12.6307
干	-12.6307
幻	-12.6307
底	-12.6307
店	-12.6307
庵	-12.6307
延	-12.6307
弁	-12.6307
弩	-12.6307
彩	-12.6307
忍	-12.6307
応	-12.6307
快	-12.6307
恒	-12.6307
恭	-12.6307
悉	-12.6307
悲	-12.6307
惟	-12.6307
惠	-12.6307
想	-12.6307
愕	-12.6307
愛	-12.6307
感	-12.6307
慕	-12.6307
慢	-12.6307
憲	-12.6307
戒	-12.6307
戦	-12.6307
戰	-12.6307
戱	-12.6307
才	-12.6307
扶	-12.6307
拂	-12.6307
拘	-12.6307
拜	-12.6307
撰	-12.6307
故	-12.6307
敎	-12.6307
敵	-12.6307
旌	-12.6307
族	-12.6307
旦	-12.6307
旭	-12.6307
昊	-12.6307
昔	-12.6307
是	-12.6307
晉	-12.6307
晳	-12.6307
晴	-12.6307
曲	-12.6307
曽	-12.6307
望	-12.6307
杓	-12.6307
杰	-12.6307
板	-12.6307
林	-12.6307
柱	-12.6307
柵	-12.6307
根	-12.6307
桃	-12.6307
森	-12.6307
植	-12.6307
極	-12.6307
榮	-12.6307
槐	-12.6307
機	-12.6307
檢	-12.6307
權	-12.6307
欲	-12.6307
歌	-12.6307
此	-12.6307
歷	-12.6307
歸	-12.6307
毅	-12.6307
氣	-12.6307
治	-12.6307
沼	-12.6307
泗	-12.6307
洙	-12.6307
洲	-12.6307
淨	-12.6307
淳	-12.6307
済	-12.6307
渠	-12.6307
温	-12.6307
測	-12.6307
滅	-12.6307
漁	-12.6307
演	-12.6307
漱	-12.6307
潮	-12.6307
激	-12.6307
濟	-12.6307
然	-12.6307
煥	-12.6307
照	-12.6307
燁	-12.6307
營	-12.6307
燦	-12.6307
牌	-12.6307
牒	-12.6307
牙	-12.6307
牛	-12.6307
牟	-12.6307
献	-12.6307
獄	-12.6307
現	-12.6307
琯	-12.6307
瓜	-12.6307
甫	-12.6307
畓	-12.6307
痍	-12.6307
白	-12.6307
監	-12.6307
真	-12.6307
眠	-12.6307
瞋	-12.6307
知	-12.6307
碧	-12.6307
磨	-12.6307
社	-12.6307
祚	-12.6307
禪	-12.6307
禾	-12.6307
私	-12.6307
科	-12.6307
秦	-12.6307
種	-12.6307
稿	-12.6307
穂	-12.6307
窘	-12.6307
立	-12.6307
站	-12.6307
篇	-12.6307
簿	-12.6307
米	-12.6307
系	-12.6307
紀	-12.6307
紗	-12.6307
級	-12.6307
統	-12.6307
綬	-12.6307
綾	-12.6307
練	-12.6307
群	-12.6307
老	-12.6307
耳	-12.6307
肅	-12.6307
育	-12.6307
背	-12.6307
脫	-12.6307
致	-12.6307
臺	-12.6307
舘	-12.6307
舟	-12.6307
芦	-12.6307
芽	-12.6307
草	-12.6307
荷	-12.6307
華	-12.6307
蓋	-12.6307
藏	-12.6307
藩	-12.6307
蘇	-12.6307
虎	-12.6307
蛙	-12.6307
蟠	-12.6307
裡	-12.6307
裸	-12.6307
褒	-12.6307
覗	-12.6307
討	-12.6307
訥	-12.6307
設	-12.6307
詞	-12.6307
誠	-12.6307
諦	-12.6307
識	-12.6307
議	-12.6307
讀	-12.6307
貞	-12.6307
貴	-12.6307
貶	-12.6307
費	-12.6307
贄	-12.6307
足	-12.6307
跡	-12.6307
輗	-12.6307
连	-12.6307
造	-12.6307
逸	-12.6307
運	-12.6307
遠	-12.6307
遥	-12.6307
遷	-12.6307
那	-12.6307
邱	-12.6307
采	-12.6307
釋	-12.6307
鉉	-12.6307
鍾	-12.6307
鏞	-12.6307
鐵	-12.6307
鐸	-12.6307
鑂	-12.6307
閣	-12.6307
阪	-12.6307
院	-12.6307
陵	-12.6307
雨	-12.6307
零	-12.6307
靑	-12.6307
頭	-12.6307
願	-12.6307
飮	-12.6307
饒	-12.6307
香	-12.6307
駕	-12.6307
驚	-12.6307
驛	-12.6307
骨	-12.6307
鬪	-12.6307
魂	-12.6307
鳳	-12.6307
鹿	-12.6307
鼻	-12.6307
갇	-12.6307
겟	-12.6307
곶	-12.6307
괭	-12.6307
굉	-12.6307
굵	-12.6307
궈	-12.6307
궜	-12.6307
귓	-12.6307
긋	-12.6307
깅	-12.6307
깐	-12.6307
깬	-12.6307
꺾	-12.6307
껏	-12.6307
꼰	-12.6307
꼽	-12.6307
냅	-12.6307
넴	-12.6307
놨	-12.6307
뉠	-12.6307
닦	-12.6307
닮	-12.6307
댔	-12.6307
덜	-12.6307
덟	-12.6307
덫	-12.6307
됬	-12.6307
딜	-12.6307
딱	-12.6307
땐	-12.6307
떡	-12.6307
뚜	-12.6307
뚫	-12.6307
뚱	-12.6307
뜰	-12.6307
띄	-12.6307
띈	-12.6307
랴	-12.6307
렙	-12.6307
렴	-12.6307
렷	-12.6307
륵	-12.6307
릅	-12.6307
릎	-12.6307
뭇	-12.6307
뭉	-12.6307
뱃	-12.6307
벙	-12.6307
봅	-12.6307
빴	-12.6307
뻐	-12.6307
뻔	-12.6307
뻗	-12.6307
뻘	-12.6307
뿜	-12.6307
쁘	-12.6307
삿	-12.6307
샀	-12.6307
셤	-12.6307
쇤	-12.6307
숀	-12.6307
쉿	-12.6307
썩	-12.6307
썽	-12.6307
쏘	-12.6307
쏭	-12.6307
씌	-12.6307
씬	-12.6307
앉	-12.6307
앓	-12.6307
앱	-12.6307
앴	-12.6307
얌	-12.6307
얏	-12.6307
얕	-12.6307
얗	-12.6307
엉	-12.6307
엥	-12.6307
엮	-12.6307
옐	-12.6307
옳	-12.6307
왈	-12.6307
욜	-12.6307
웍	-12.6307
웩	-12.6307
윔	-12.6307
잊	-12.6307
잼	-12.6307
쥘	-12.6307
쥬	-12.6307
쥰	-12.6307
짚	-12.6307
쩌	-12.6307
쩍	-12.6307
쩔	-12.6307
쫒	-12.6307
쭌	-12.6307
찐	-12.6307
찔	-12.6307
찢	-12.6307
찮	-12.6307
챙	-12.6307
챠	-12.6307
쳄	-12.6307
촐	-12.6307
촛	-12.6307
촨	-12.6307
쵸	-12.6307
츰	-12.6307
캣	-12.6307
컫	-12.6307
쾨	-12.6307
쿰	-12.6307
퀀	-12.6307
퀸	-12.6307
퀼	-12.6307
킥	-12.6307
킵	-12.6307
탉	-12.6307
탬	-12.6307
탭	-12.6307
탱	-12.6307
턱	-12.6307
텀	-12.6307
텡	-12.6307
텼	-12.6307
툭	-12.6307
틍	-12.6307
팍	-12.6307
팥	-12.6307
팰	-12.6307
팸	-12.6307
팽	-12.6307
펀	-12.6307
펄	-12.6307
펌	-12.6307
펫	-12.6307
폄	-12.6307
폈	-12.6307
푁	-12.6307
퓌	-12.6307
퓸	-12.6307
헐	-12.6307
훔	-12.6307
흄	-12.6307
힙	-12.6307
𐰀	-12.6307
𐰁	-12.6307
𐰂	-12.6307
𐰃	-12.6307
𐰄	-12.6307
𐰅	-12.6307
𐰆	-12.6307
𐰇	-12.6307
𐰈	-12.6307
𐰉	-12.6307
𐰊	-12.6307
𐰋	-12.6307
𐰌	-12.6307
𐰍	-12.6307
𐰎	-12.6307
𐰏	-12.6307
𐰐	-12.6307
𐰑	-12.6307
𐰒	-12.6307
𐰓	-12.6307
𐰔	-12.6307
𐰕	-12.6307
𐰖	-12.6307
𐰗	-12.6307
𐰘	-12.6307
𐰙	-12.6307
𐰚	-12.6307
𐰛	-12.6307
𐰜	-12.6307
𐰝	-12.6307
𐰞	-12.6307
𐰟	-12.6307
𐰠	-12.6307
𐰡	-12.6307
𐰢	-12.6307
𐰣	-12.6307
𐰤	-12.6307
𐰥	-12.6307
𐰦	-12.6307
𐰧	-12.6307
𐰨	-12.6307
𐰩	-12.6307
𐰪	-12.6307
𐰫	-12.6307
𐰬	-12.6307
𐰭	-12.6307
𐰮	-12.6307
𐰯	-12.6307
𐰰	-12.6307
𐰱	-12.6307
𐰲	-12.6307
𐰳	-12.6307
𐰴	-12.6307
𐰵	-12.6307
𐰶	-12.6307
𐰷	-12.6307
𐰸	-12.6307
𐰹	-12.6307
𐰺	-12.6307
𐰻	-12.6307
𐰼	-12.6307
𐰽	-12.6307
𐰾	-12.6307
𐰿	-12.6307
𐱀	-12.6307
𐱁	-12.6307
𐱂	-12.6307
𐱃	-12.6307
𐱄	-12.6307
𐱅	-12.6307
𐱆	-12.6307
𐱇	-12.6307
𐱈	-12.6307
떴	-12.6307
볶	-12.6307
텃	-12.6307
è	-12.6307
乘	-12.6307
京	-12.6307
勒	-12.6307
壬	-12.6307
姜	-12.6307
孟	-12.6307
居	-12.6307
師	-12.6307
建	-12.6307
強	-12.6307
數	-12.6307
晨	-12.6307
泳	-12.6307
洗	-12.6307
洵	-12.6307
滿	-12.6307
甑	-12.6307
發	-12.6307
祥	-12.6307
秉	-12.6307
積	-12.6307
舍	-12.6307
裵	-12.6307
謹	-12.6307
象	-12.6307
重	-12.6307
陳	-12.6307
隨	-12.6307
魏	-12.6307
麻	-12.6307
鼎	-12.6307
낚	-12.6307
댜	-12.6307
멕	-12.6307
뽀	-12.6307
샨	-12.6307
쩬	-12.6307
첵	-12.6307
쳇	-12.6307
ィ	-12.6307
ë	-12.6307
ב	-12.6307
ע	-12.6307
ר	-12.6307
〕	-12.6307
ガ	-12.6307
ハ	-12.6307
劇	-12.6307
匠	-12.6307
寫	-12.6307
尙	-12.6307
弘	-12.6307
志	-12.6307
汝	-12.6307
注	-12.6307
礼	-12.6307
行	-12.6307
談	-12.6307
邑	-12.6307
鄒	-12.6307
鉤	-12.6307
鏻	-12.6307
界	-12.6307
ァ	-12.6307
保	-12.6307
傳	-12.6307
兄	-12.6307
兵	-12.6307
巫	-12.6307
弟	-12.6307
張	-12.6307
皐	-12.6307
超	-12.6307
釣	-12.6307
뜬	-12.6307
十	-12.6307
履	-12.6307
悪	-12.6307
歳	-12.6307
歴	-12.6307
穴	-12.6307
節	-12.6307
羽	-12.6307
詰	-12.6307
飛	-12.6307
基	-12.6309
墓	-12.6309
桐	-12.6309
𮕩	-13.6169
🚈	-13.617
🔑	-13.6171
𝕊	-13.6172
𝕆	-13.6173
𝔭	-13.6174
𐍄	-13.6175
𐍃	-13.6176
𐌿	-13.6177
𐌺	-13.6178
𐌹	-13.6179
𐌲	-13.618
�	-13.6181
･	-13.6182
｣	-13.6183
｢	-13.6184
～	-13.6185
｜	-13.6186
ｘ	-13.6187
ｍ	-13.6188
ａ	-13.6189
Ｒ	-13.619
Ｍ	-13.6191
Ｊ	-13.6192
？	-13.6193
＞	-13.6194
＝	-13.6195
＜	-13.6196
；	-13.6197
：	-13.6198
５	-13.6199
４	-13.62
２	-13.6201
１	-13.6202
０	-13.6203
／	-13.6204
．	-13.6205
－	-13.6206
，	-13.6207
＋	-13.6208
）	-13.6209
（	-13.621
＆	-13.6211
％	-13.6212
＃	-13.6213
＂	-13.6214
！	-13.6215
﻿	-13.6216
﹞	-13.6217
﹝	-13.6218
﨑	-13.6219
	-13.622
	-13.6221
	-13.6222
힝	-13.6223
힛	-13.6224
힉	-13.6225
흙	-13.6226
휼	-13.6227
휸	-13.6228
휫	-13.6229
휩	-13.623
휠	-13.6231
휜	-13.6232
휙	-13.6233
훤	-13.6234
훠	-13.6235
훙	-13.6236
훑	-13.6237
훅	-13.6238
횃	-13.6239
헹	-13.624
헷	-13.6241
헵	-13.6242
헴	-13.6243
헥	-13.6244
헛	-13.6245
헉	-13.6246
햐	-13.6247
햅	-13.6248
핥	-13.6249
핏	-13.625
핌	-13.6251
퓰	-13.6252
푀	-13.6253
퐁	-13.6254
폿	-13.6255
펭	-13.6256
펨	-13.6257
펑	-13.6258
펍	-13.6259
퍽	-13.626
퍄	-13.6261
팻	-13.6262
팠	-13.6263
팜	-13.6264
팎	-13.6265
튿	-13.6266
튬	-13.6267
튤	-13.6268
튕	-13.6269
툠	-13.627
톳	-13.6271
톄	-13.6272
텨	-13.6273
텟	-13.6274
텝	-13.6275
텁	-13.6276
탸	-13.6277
큘	-13.6278
큇	-13.6279
큅	-13.628
퀵	-13.6281
퀠	-13.6282
퀄	-13.6283
쿱	-13.6284
콸	-13.6285
콴	-13.6286
콰	-13.6287
컹	-13.6288
컸	-13.6289
캬	-13.629
캥	-13.6291
캑	-13.6292
캉	-13.6293
캇	-13.6294
캅	-13.6295
칵	-13.6296
츳	-13.6297
츤	-13.6298
췌	-13.6299
췄	-13.63
춧	-13.6301
춋	-13.6302
쵼	-13.6303
촘	-13.6304
쳥	-13.6305
쳔	-13.6306
쳉	-13.6307
챤	-13.6308
챗	-13.6309
챕	-13.631
챈	-13.6311
찼	-13.6312
찻	-13.6313
찹	-13.6314
찜	-13.6315
쯩	-13.6316
쯔	-13.6317
쭤	-13.6318
쭝	-13.6319
쭈	-13.632
쫑	-13.6321
쫄	-13.6322
쫀	-13.6323
쪼	-13.6324
쪄	-13.6325
쩡	-13.6326
쩜	-13.6327
쩐	-13.6328
쨍	-13.6329
쨌	-13.633
쨋	-13.6331
짰	-13.6332
짯	-13.6333
짭	-13.6334
짬	-13.6335
짤	-13.6336
짢	-13.6337
짠	-13.6338
짙	-13.6339
즙	-13.634
줴	-13.6341
줍	-13.6342
죤	-13.6343
죈	-13.6344
좡	-13.6345
좇	-13.6346
젼	-13.6347
젱	-13.6348
젭	-13.6349
젬	-13.635
젓	-13.6351
쟝	-13.6352
쟈	-13.6353
잿	-13.6354
잰	-13.6355
잌	-13.6356
읜	-13.6357
읊	-13.6358
윽	-13.6359
윳	-13.636
윱	-13.6361
윕	-13.6362
웽	-13.6363
웻	-13.6364
웡	-13.6365
웜	-13.6366
웁	-13.6367
욤	-13.6368
왠	-13.6369
왓	-13.637
왑	-13.6371
왐	-13.6372
왁	-13.6373
옻	-13.6374
옭	-13.6375
옙	-13.6376
옅	-13.6377
엷	-13.6378
엎	-13.6379
엌	-13.638
얹	-13.6381
얍	-13.6382
앳	-13.6383
씽	-13.6384
씻	-13.6385
씹	-13.6386
씰	-13.6387
씀	-13.6388
쒸	-13.6389
쑹	-13.639
쑨	-13.6391
쑥	-13.6392
쐐	-13.6393
쐈	-13.6394
쏠	-13.6395
쏜	-13.6396
쎌	-13.6397
쎈	-13.6398
쎄	-13.6399
썻	-13.64
썹	-13.6401
쌤	-13.6402
쌔	-13.6403
쌉	-13.6404
쌈	-13.6405
싣	-13.6406
슝	-13.6407
슛	-13.6408
슌	-13.6409
쉼	-13.641
쉰	-13.6411
쉘	-13.6412
쉐	-13.6413
숱	-13.6414
숯	-13.6415
숟	-13.6416
숄	-13.6417
쇳	-13.6418
솽	-13.6419
솬	-13.642
솥	-13.6421
솟	-13.6422
솁	-13.6423
솀	-13.6424
셸	-13.6425
셴	-13.6426
셩	-13.6427
셍	-13.6428
섣	-13.6429
섞	-13.643
섐	-13.6431
샷	-13.6432
샵	-13.6433
샥	-13.6434
샛	-13.6435
샐	-13.6436
삯	-13.6437
쁨	-13.6438
쁠	-13.6439
뿡	-13.644
뿔	-13.6441
뾰	-13.6442
뽕	-13.6443
뽐	-13.6444
뽈	-13.6445
뼛	-13.6446
뻬	-13.6447
뻤	-13.6448
뺨	-13.6449
뺑	-13.645
뺏	-13.6451
뺌	-13.6452
뺄	-13.6453
뺀	-13.6454
빽	-13.6455
빳	-13.6456
빤	-13.6457
빡	-13.6458
빔	-13.6459
븀	-13.646
뷸	-13.6461
붖	-13.6462
뵤	-13.6463
뵙	-13.6464
뵐	-13.6465
뵈	-13.6466
봊	-13.6467
볜	-13.6468
볕	-13.6469
벵	-13.647
벧	-13.6471
뱡	-13.6472
밧	-13.6473
밌	-13.6474
밉	-13.6475
믐	-13.6476
믈	-13.6477
뮬	-13.6478
뮐	-13.6479
뮈	-13.648
뭣	-13.6481
뭔	-13.6482
뭍	-13.6483
뭄	-13.6484
묜	-13.6485
묏	-13.6486
묄	-13.6487
묀	-13.6488
뫼	-13.6489
몹	-13.649
몫	-13.6491
몄	-13.6492
멱	-13.6493
먕	-13.6494
먀	-13.6495
맴	-13.6496
맬	-13.6497
맙	-13.6498
맏	-13.6499
릇	-13.65
륭	-13.6501
륫	-13.6502
륄	-13.6503
뤽	-13.6504
룽	-13.6505
룻	-13.6506
룁	-13.6507
룀	-13.6508
뢴	-13.6509
롼	-13.651
렝	-13.6511
랼	-13.6512
랸	-13.6513
랬	-13.6514
랠	-13.6515
랗	-13.6516
띵	-13.6517
띤	-13.6518
뜸	-13.6519
뜩	-13.652
뜀	-13.6521
뚧	-13.6522
뚝	-13.6523
똣	-13.6524
똘	-13.6525
똔	-13.6526
뗐	-13.6527
뗄	-13.6528
떼	-13.6529
떫	-13.653
떄	-13.6531
땡	-13.6532
땜	-13.6533
땋	-13.6534
땄	-13.6535
땁	-13.6536
딨	-13.6537
딧	-13.6538
딤	-13.6539
딛	-13.654
듸	-13.6541
듦	-13.6542
듐	-13.6543
듈	-13.6544
듄	-13.6545
뒹	-13.6546
뒴	-13.6547
둬	-13.6548
둣	-13.6549
둡	-13.655
됭	-13.6551
돤	-13.6552
돗	-13.6553
뎬	-13.6554
뎐	-13.6555
뎌	-13.6556
뎅	-13.6557
뎃	-13.6558
뎀	-13.6559
덮	-13.656
덥	-13.6561
덞	-13.6562
댕	-13.6563
댓	-13.6564
댑	-13.6565
댈	-13.6566
댁	-13.6567
닿	-13.6568
닻	-13.6569
닳	-13.657
닯	-13.6571
닙	-13.6572
늴	-13.6573
늬	-13.6574
늪	-13.6575
늠	-13.6576
늗	-13.6577
늉	-13.6578
눴	-13.6579
눙	-13.658
눗	-13.6581
눕	-13.6582
뇰	-13.6583
놔	-13.6584
놋	-13.6585
놉	-13.6586
녠	-13.6587
녘	-13.6588
넸	-13.6589
넨	-13.659
넝	-13.6591
넜	-13.6592
넛	-13.6593
넙	-13.6594
넉	-13.6595
냠	-13.6596
냔	-13.6597
냑	-13.6598
냇	-13.6599
냄	-13.66
낵	-13.6601
낱	-13.6602
낡	-13.6603
낑	-13.6604
낏	-13.6605
끽	-13.6606
뀔	-13.6607
뀐	-13.6608
꿰	-13.6609
꿩	-13.661
꿨	-13.6611
꿍	-13.6612
꿇	-13.6613
꽤	-13.6614
꽝	-13.6615
꽐	-13.6616
꽌	-13.6617
꽉	-13.6618
꽈	-13.6619
꽁	-13.662
꼿	-13.6621
껑	-13.6622
껐	-13.6623
껌	-13.6624
껄	-13.6625
껀	-13.6626
꺽	-13.6627
깽	-13.6628
깼	-13.6629
깎	-13.663
깍	-13.6631
깁	-13.6632
긱	-13.6633
긔	-13.6634
긁	-13.6635
귐	-13.6636
귈	-13.6637
귄	-13.6638
궉	-13.6639
궃	-13.664
궂	-13.6641
굽	-13.6642
굼	-13.6643
곯	-13.6644
곬	-13.6645
곁	-13.6646
겡	-13.6647
겜	-13.6648
겋	-13.6649
겊	-13.665
겉	-13.6651
걺	-13.6652
걷	-13.6653
걔	-13.6654
갸	-13.6655
갰	-13.6656
갭	-13.6657
갬	-13.6658
갠	-13.6659
갛	-13.666
Ꙗ	-13.6661
龟	-13.6662
龜	-13.6663
龙	-13.6664
齡	-13.6665
齒	-13.6666
齋	-13.6667
齊	-13.6668
鼠	-13.6669
鼓	-13.667
黨	-13.6671
點	-13.6672
黜	-13.6673
默	-13.6674
黔	-13.6675
黑	-13.6676
黄	-13.6677
麼	-13.6678
麵	-13.6679
麴	-13.668
麥	-13.6681
麤	-13.6682
麟	-13.6683
麗	-13.6684
麒	-13.6685
鹽	-13.6686
鷹	-13.6687
鷲	-13.6688
鷗	-13.6689
鷄	-13.669
鶯	-13.6691
鵬	-13.6692
鵝	-13.6693
鴻	-13.6694
鴆	-13.6695
鳴	-13.6696
鳧	-13.6697
鳥	-13.6698
鲁	-13.6699
鯱	-13.67
鯉	-13.6701
鮮	-13.6702
魯	-13.6703
魚	-13.6704
魔	-13.6705
魅	-13.6706
魄	-13.6707
魁	-13.6708
鬲	-13.6709
鬱	-13.671
鬥	-13.6711
髮	-13.6712
髙	-13.6713
骑	-13.6714
马	-13.6715
驪	-13.6716
驤	-13.6717
驗	-13.6718
驅	-13.6719
騷	-13.672
騰	-13.6721
騎	-13.6722
駿	-13.6723
駐	-13.6724
駅	-13.6725
馹	-13.6726
馱	-13.6727
馮	-13.6728
馭	-13.6729
馨	-13.673
首	-13.6731
馆	-13.6732
饑	-13.6733
餓	-13.6734
餌	-13.6735
養	-13.6736
飾	-13.6737
飽	-13.6738
飲	-13.6739
飯	-13.674
飢	-13.6741
飡	-13.6742
食	-13.6743
飜	-13.6744
页	-13.6745
顧	-13.6746
類	-13.6747
顚	-13.6748
顕	-13.6749
顔	-13.675
額	-13.6751
題	-13.6752
頼	-13.6753
頻	-13.6754
頹	-13.6755
頸	-13.6756
頴	-13.6757
頤	-13.6758
領	-13.6759
頗	-13.676
頓	-13.6761
預	-13.6762
頌	-13.6763
順	-13.6764
頃	-13.6765
頂	-13.6766
頁	-13.6767
韻	-13.6768
韶	-13.6769
韋	-13.677
鞭	-13.6771
革	-13.6772
靜	-13.6773
靖	-13.6774
霧	-13.6775
霞	-13.6776
霜	-13.6777
霖	-13.6778
霊	-13.6779
震	-13.678
霄	-13.6781
需	-13.6782
電	-13.6783
雷	-13.6784
雲	-13.6785
雪	-13.6786
難	-13.6787
離	-13.6788
雜	-13.6789
雙	-13.679
雖	-13.6791
雒	-13.6792
雌	-13.6793
雅	-13.6794
雁	-13.6795
雀	-13.6796
隸	-13.6797
隷	-13.6798
隱	-13.6799
險	-13.68
隠	-13.6801
障	-13.6802
際	-13.6803
隔	-13.6804
階	-13.6805
隋	-13.6806
隊	-13.6807
隅	-13.6808
陸	-13.6809
陷	-13.681
陶	-13.6811
陰	-13.6812
除	-13.6813
陣	-13.6814
陟	-13.6815
陞	-13.6816
陜	-13.6817
陘	-13.6818
限	-13.6819
降	-13.682
陈	-13.6821
附	-13.6822
陂	-13.6823
防	-13.6824
阯	-13.6825
阜	-13.6826
闽	-13.6827
闢	-13.6828
闕	-13.6829
闍	-13.683
闇	-13.6831
閼	-13.6832
閻	-13.6833
閹	-13.6834
閲	-13.6835
閱	-13.6836
閩	-13.6837
閨	-13.6838
関	-13.6839
閔	-13.684
閑	-13.6841
閏	-13.6842
閉	-13.6843
閈	-13.6844
閃	-13.6845
长	-13.6846
铁	-13.6847
鑰	-13.6848
鑛	-13.6849
鑒	-13.685
鑑	-13.6851
鑄	-13.6852
鏽	-13.6853
鏡	-13.6854
鎮	-13.6855
鎬	-13.6856
鎖	-13.6857
鎔	-13.6858
鎌	-13.6859
鍼	-13.686
鍝	-13.6861
鍊	-13.6862
録	-13.6863
錯	-13.6864
錦	-13.6865
錥	-13.6866
錢	-13.6867
錚	-13.6868
錄	-13.6869
鋼	-13.687
鋭	-13.6871
銳	-13.6872
銘	-13.6873
銓	-13.6874
銈	-13.6875
銅	-13.6876
銃	-13.6877
銀	-13.6878
鉱	-13.6879
鉛	-13.688
鉅	-13.6881
鉄	-13.6882
鉀	-13.6883
鈺	-13.6884
鈴	-13.6885
鈞	-13.6886
鈔	-13.6887
鈍	-13.6888
針	-13.6889
釜	-13.689
量	-13.6891
醫	-13.6892
醜	-13.6893
醒	-13.6894
醋	-13.6895
醉	-13.6896
醇	-13.6897
酸	-13.6898
酒	-13.6899
配	-13.69
酌	-13.6901
鄴	-13.6902
鄲	-13.6903
鄰	-13.6904
鄧	-13.6905
鄡	-13.6906
鄚	-13.6907
鄙	-13.6908
鄃	-13.6909
郷	-13.691
郵	-13.6911
郭	-13.6912
郊	-13.6913
郁	-13.6914
邵	-13.6915
邯	-13.6916
邪	-13.6917
邦	-13.6918
邏	-13.6919
邊	-13.692
邈	-13.6921
還	-13.6922
邁	-13.6923
避	-13.6924
遺	-13.6925
選	-13.6926
遵	-13.6927
遲	-13.6928
遮	-13.6929
遭	-13.693
適	-13.6931
遣	-13.6932
遞	-13.6933
遜	-13.6934
遙	-13.6935
遘	-13.6936
違	-13.6937
遐	-13.6938
過	-13.6939
遍	-13.694
遊	-13.6941
遇	-13.6942
遂	-13.6943
逵	-13.6944
進	-13.6945
逮	-13.6946
連	-13.6947
逢	-13.6948
速	-13.6949
逝	-13.695
途	-13.6951
逐	-13.6952
透	-13.6953
逍	-13.6954
逆	-13.6955
逃	-13.6956
退	-13.6957
追	-13.6958
迷	-13.6959
迴	-13.696
述	-13.6961
迫	-13.6962
远	-13.6963
返	-13.6964
近	-13.6965
运	-13.6966
迎	-13.6967
迅	-13.6968
达	-13.6969
辺	-13.697
農	-13.6971
辱	-13.6972
辰	-13.6973
辯	-13.6974
辭	-13.6975
辩	-13.6976
辨	-13.6977
辦	-13.6978
辞	-13.6979
载	-13.698
轍	-13.6981
轉	-13.6982
轅	-13.6983
輿	-13.6984
輸	-13.6985
輯	-13.6986
輪	-13.6987
輩	-13.6988
輝	-13.6989
輛	-13.699
輕	-13.6991
輔	-13.6992
輌	-13.6993
載	-13.6994
較	-13.6995
軽	-13.6996
軼	-13.6997
軸	-13.6998
軫	-13.6999
転	-13.7
軟	-13.7001
軌	-13.7002
車	-13.7003
躍	-13.7004
蹴	-13.7005
蹤	-13.7006
蹟	-13.7007
踰	-13.7008
踐	-13.7009
踏	-13.701
践	-13.7011
跳	-13.7012
距	-13.7013
趣	-13.7014
赵	-13.7015
赴	-13.7016
走	-13.7017
赫	-13.7018
赛	-13.7019
资	-13.702
贛	-13.7021
贍	-13.7022
贈	-13.7023
贇	-13.7024
質	-13.7025
賦	-13.7026
賤	-13.7027
賣	-13.7028
賢	-13.7029
賞	-13.703
賜	-13.7031
賛	-13.7032
賓	-13.7033
賊	-13.7034
賈	-13.7035
資	-13.7036
賃	-13.7037
貿	-13.7038
貸	-13.7039
買	-13.704
貳	-13.7041
貯	-13.7042
責	-13.7043
貫	-13.7044
販	-13.7045
貨	-13.7046
貧	-13.7047
貢	-13.7048
財	-13.7049
負	-13.705
貝	-13.7051
貌	-13.7052
豪	-13.7053
豚	-13.7054
豐	-13.7055
豊	-13.7056
豈	-13.7057
豆	-13.7058
诏	-13.7059
证	-13.706
许	-13.7061
讚	-13.7062
讓	-13.7063
變	-13.7064
譿	-13.7065
譽	-13.7066
護	-13.7067
譯	-13.7068
譬	-13.7069
警	-13.707
譜	-13.7071
證	-13.7072
謨	-13.7073
謠	-13.7074
謝	-13.7075
講	-13.7076
謙	-13.7077
謂	-13.7078
謁	-13.7079
謀	-13.708
諿	-13.7081
諾	-13.7082
諫	-13.7083
諡	-13.7084
諍	-13.7085
請	-13.7086
諂	-13.7087
調	-13.7088
誼	-13.7089
課	-13.709
誰	-13.7091
読	-13.7092
誦	-13.7093
誤	-13.7094
誣	-13.7095
誡	-13.7096
誘	-13.7097
誕	-13.7098
誓	-13.7099
誑	-13.71
認	-13.7101
誌	-13.7102
誉	-13.7103
誇	-13.7104
誅	-13.7105
詻	-13.7106
詹	-13.7107
詵	-13.7108
詳	-13.7109
該	-13.711
詮	-13.7111
詩	-13.7112
詠	-13.7113
詛	-13.7114
評	-13.7115
詔	-13.7116
詐	-13.7117
註	-13.7118
訶	-13.7119
訴	-13.712
訪	-13.7121
訣	-13.7122
訟	-13.7123
託	-13.7124
訔	-13.7125
訓	-13.7126
計	-13.7127
訂	-13.7128
觸	-13.7129
角	-13.713
覿	-13.7131
覽	-13.7132
覺	-13.7133
観	-13.7134
覲	-13.7135
親	-13.7136
覧	-13.7137
覚	-13.7138
視	-13.7139
規	-13.714
覇	-13.7141
覆	-13.7142
要	-13.7143
襲	-13.7144
襄	-13.7145
褻	-13.7146
複	-13.7147
褆	-13.7148
製	-13.7149
裴	-13.715
裳	-13.7151
裨	-13.7152
裝	-13.7153
補	-13.7154
裕	-13.7155
裏	-13.7156
装	-13.7157
裂	-13.7158
裁	-13.7159
被	-13.716
袞	-13.7161
袖	-13.7162
衿	-13.7163
衷	-13.7164
衰	-13.7165
表	-13.7166
衣	-13.7167
衝	-13.7168
街	-13.7169
術	-13.717
衍	-13.7171
血	-13.7172
蠻	-13.7173
蠶	-13.7174
蠱	-13.7175
蠡	-13.7176
蠍	-13.7177
蟹	-13.7178
蟲	-13.7179
蟬	-13.718
螺	-13.7181
螢	-13.7182
蝦	-13.7183
蝕	-13.7184
蜂	-13.7185
蜀	-13.7186
蛮	-13.7187
蛇	-13.7188
號	-13.7189
虜	-13.719
處	-13.7191
虔	-13.7192
虒	-13.7193
虏	-13.7194
蘋	-13.7195
蘊	-13.7196
蘆	-13.7197
藪	-13.7198
藥	-13.7199
藝	-13.72
藜	-13.7201
藍	-13.7202
薰	-13.7203
薫	-13.7204
薪	-13.7205
薩	-13.7206
薨	-13.7207
薦	-13.7208
薛	-13.7209
薙	-13.721
薍	-13.7211
薊	-13.7212
薄	-13.7213
蕭	-13.7214
蕩	-13.7215
蕙	-13.7216
蕉	-13.7217
蕃	-13.7218
蔽	-13.7219
蔭	-13.722
蔬	-13.7221
蔣	-13.7222
蔡	-13.7223
蔚	-13.7224
蓼	-13.7225
蓬	-13.7226
蓚	-13.7227
蓄	-13.7228
蓀	-13.7229
蒸	-13.723
蒲	-13.7231
蒙	-13.7232
葬	-13.7233
董	-13.7234
葛	-13.7235
落	-13.7236
萱	-13.7237
萊	-13.7238
菴	-13.7239
菩	-13.724
菌	-13.7241
菊	-13.7242
菅	-13.7243
莫	-13.7244
莪	-13.7245
荼	-13.7246
荘	-13.7247
荒	-13.7248
荊	-13.7249
茲	-13.725
茫	-13.7251
茅	-13.7252
茂	-13.7253
苧	-13.7254
苟	-13.7255
苞	-13.7256
苗	-13.7257
苔	-13.7258
苑	-13.7259
芾	-13.726
芸	-13.7261
芯	-13.7262
芬	-13.7263
芝	-13.7264
芙	-13.7265
芗	-13.7266
芑	-13.7267
艾	-13.7268
色	-13.7269
艱	-13.727
艦	-13.7271
船	-13.7272
舶	-13.7273
航	-13.7274
舞	-13.7275
舜	-13.7276
舒	-13.7277
舎	-13.7278
舌	-13.7279
舉	-13.728
與	-13.7281
至	-13.7282
臭	-13.7283
臥	-13.7284
臣	-13.7285
臟	-13.7286
臘	-13.7287
膵	-13.7288
膳	-13.7289
膚	-13.729
腹	-13.7291
腸	-13.7292
腰	-13.7293
腦	-13.7294
腐	-13.7295
腎	-13.7296
腆	-13.7297
脩	-13.7298
脣	-13.7299
脛	-13.73
脚	-13.7301
脈	-13.7302
脇	-13.7303
脅	-13.7304
脂	-13.7305
能	-13.7306
胸	-13.7307
胤	-13.7308
胡	-13.7309
胞	-13.731
胖	-13.7311
胎	-13.7312
胆	-13.7313
胄	-13.7314
胃	-13.7315
肺	-13.7316
肯	-13.7317
肩	-13.7318
肥	-13.7319
肝	-13.732
肖	-13.7321
肉	-13.7322
肇	-13.7323
聽	-13.7324
職	-13.7325
聲	-13.7326
聰	-13.7327
聯	-13.7328
聞	-13.7329
聚	-13.733
聘	-13.7331
聃	-13.7332
耶	-13.7333
耘	-13.7334
耐	-13.7335
耉	-13.7336
耆	-13.7337
考	-13.7338
翼	-13.7339
翰	-13.734
翡	-13.7341
翠	-13.7342
翔	-13.7343
習	-13.7344
翎	-13.7345
翊	-13.7346
翁	-13.7347
羲	-13.7348
羨	-13.7349
羣	-13.735
羞	-13.7351
羊	-13.7352
罷	-13.7353
署	-13.7354
罰	-13.7355
置	-13.7356
罪	-13.7357
罔	-13.7358
缺	-13.7359
绥	-13.736
绍	-13.7361
纘	-13.7362
續	-13.7363
纂	-13.7364
繼	-13.7365
繹	-13.7366
繫	-13.7367
繪	-13.7368
繕	-13.7369
織	-13.737
繁	-13.7371
績	-13.7372
總	-13.7373
縱	-13.7374
縮	-13.7375
縛	-13.7376
縉	-13.7377
縈	-13.7378
縄	-13.7379
緯	-13.738
緩	-13.7381
編	-13.7382
線	-13.7383
緖	-13.7384
緊	-13.7385
綿	-13.7386
網	-13.7387
維	-13.7388
綢	-13.7389
綠	-13.739
綜	-13.7391
続	-13.7392
継	-13.7393
綏	-13.7394
絹	-13.7395
絶	-13.7396
絵	-13.7397
絳	-13.7398
絲	-13.7399
給	-13.74
絡	-13.7401
絕	-13.7402
経	-13.7403
絆	-13.7404
組	-13.7405
絃	-13.7406
終	-13.7407
紺	-13.7408
紹	-13.7409
紳	-13.741
細	-13.7411
累	-13.7412
紫	-13.7413
索	-13.7414
紛	-13.7415
紙	-13.7416
紘	-13.7417
純	-13.7418
納	-13.7419
紋	-13.742
約	-13.7421
紂	-13.7422
糾	-13.7423
糧	-13.7424
糖	-13.7425
精	-13.7426
粱	-13.7427
粧	-13.7428
粟	-13.7429
粉	-13.743
类	-13.7431
籍	-13.7432
簡	-13.7433
篤	-13.7434
築	-13.7435
範	-13.7436
箱	-13.7437
箭	-13.7438
管	-13.7439
算	-13.744
箕	-13.7441
策	-13.7442
答	-13.7443
筏	-13.7444
筌	-13.7445
等	-13.7446
筆	-13.7447
笹	-13.7448
笵	-13.7449
符	-13.745
笛	-13.7451
笑	-13.7452
竺	-13.7453
競	-13.7454
端	-13.7455
童	-13.7456
竟	-13.7457
竝	-13.7458
竊	-13.7459
竄	-13.746
窮	-13.7461
窩	-13.7462
窓	-13.7463
突	-13.7464
究	-13.7465
穫	-13.7466
穩	-13.7467
穨	-13.7468
穢	-13.7469
穡	-13.747
穎	-13.7471
穆	-13.7472
穀	-13.7473
稽	-13.7474
稻	-13.7475
稷	-13.7476
稱	-13.7477
稚	-13.7478
稙	-13.7479
稍	-13.748
程	-13.7481
稅	-13.7482
稀	-13.7483
移	-13.7484
秩	-13.7485
秤	-13.7486
秣	-13.7487
租	-13.7488
秘	-13.7489
秒	-13.749
秀	-13.7491
禿	-13.7492
禽	-13.7493
禰	-13.7494
禮	-13.7495
禧	-13.7496
禦	-13.7497
禛	-13.7498
禔	-13.7499
禎	-13.75
禍	-13.7501
禅	-13.7502
禄	-13.7503
祿	-13.7504
祹	-13.7505
祭	-13.7506
票	-13.7507
祠	-13.7508
祝	-13.7509
祜	-13.751
祕	-13.7511
祐	-13.7512
祈	-13.7513
祇	-13.7514
祀	-13.7515
示	-13.7516
礪	-13.7517
礙	-13.7518
礎	-13.7519
磻	-13.752
磐	-13.7521
確	-13.7522
碩	-13.7523
碑	-13.7524
碍	-13.7525
硯	-13.7526
硬	-13.7527
硏	-13.7528
破	-13.7529
砲	-13.753
砥	-13.7531
研	-13.7532
砂	-13.7533
矯	-13.7534
短	-13.7535
矩	-13.7536
矣	-13.7537
矢	-13.7538
矛	-13.7539
瞿	-13.754
瞻	-13.7541
瞳	-13.7542
瞬	-13.7543
瞞	-13.7544
睿	-13.7545
睹	-13.7546
睦	-13.7547
睡	-13.7548
着	-13.7549
眾	-13.755
眼	-13.7551
眷	-13.7552
眞	-13.7553
県	-13.7554
看	-13.7555
眉	-13.7556
眇	-13.7557
省	-13.7558
盾	-13.7559
盼	-13.756
直	-13.7561
盲	-13.7562
盤	-13.7563
盡	-13.7564
盟	-13.7565
益	-13.7566
皮	-13.7567
皞	-13.7568
皓	-13.7569
皆	-13.757
百	-13.7571
登	-13.7572
発	-13.7573
癸	-13.7574
癡	-13.7575
癖	-13.7576
癌	-13.7577
療	-13.7578
痛	-13.7579
痕	-13.758
症	-13.7581
病	-13.7582
疾	-13.7583
疲	-13.7584
疫	-13.7585
疏	-13.7586
疇	-13.7587
疆	-13.7588
畿	-13.7589
當	-13.759
異	-13.7591
畫	-13.7592
番	-13.7593
略	-13.7594
畢	-13.7595
畠	-13.7596
畝	-13.7597
畜	-13.7598
留	-13.7599
畏	-13.76
画	-13.7601
男	-13.7602
申	-13.7603
由	-13.7604
用	-13.7605
産	-13.7606
甚	-13.7607
甘	-13.7608
甕	-13.7609
瓚	-13.761
瓘	-13.7611
瓊	-13.7612
瓆	-13.7613
璿	-13.7614
璽	-13.7615
環	-13.7616
璧	-13.7617
璠	-13.7618
璟	-13.7619
璜	-13.762
璐	-13.7621
璋	-13.7622
璉	-13.7623
璇	-13.7624
瑭	-13.7625
瑞	-13.7626
瑜	-13.7627
瑛	-13.7628
瑋	-13.7629
瑄	-13.763
琴	-13.7631
琰	-13.7632
琬	-13.7633
琦	-13.7634
琥	-13.7635
琢	-13.7636
琛	-13.7637
琚	-13.7638
理	-13.7639
琅	-13.764
球	-13.7641
珽	-13.7642
珹	-13.7643
班	-13.7644
珪	-13.7645
珦	-13.7646
珥	-13.7647
珝	-13.7648
珍	-13.7649
珊	-13.765
珉	-13.7651
玹	-13.7652
玲	-13.7653
玠	-13.7654
玟	-13.7655
玗	-13.7656
玖	-13.7657
玎	-13.7658
率	-13.7659
玄	-13.766
獻	-13.7661
獸	-13.7662
獵	-13.7663
獲	-13.7664
獨	-13.7665
獐	-13.7666
獅	-13.7667
猶	-13.7668
猫	-13.7669
猥	-13.767
猟	-13.7671
猛	-13.7672
狛	-13.7673
狗	-13.7674
狄	-13.7675
狀	-13.7676
犯	-13.7677
犬	-13.7678
犢	-13.7679
牽	-13.768
特	-13.7681
牧	-13.7682
牢	-13.7683
牡	-13.7684
版	-13.7685
片	-13.7686
父	-13.7687
爵	-13.7688
爭	-13.7689
爪	-13.769
爛	-13.7691
爐	-13.7692
爆	-13.7693
爀	-13.7694
燮	-13.7695
燭	-13.7696
燥	-13.7697
燕	-13.7698
燒	-13.7699
燈	-13.77
燄	-13.7701
燃	-13.7702
熾	-13.7703
熹	-13.7704
熱	-13.7705
熟	-13.7706
熏	-13.7707
煽	-13.7708
煬	-13.7709
煢	-13.771
煙	-13.7711
煕	-13.7712
煎	-13.7713
煌	-13.7714
煉	-13.7715
焰	-13.7716
焚	-13.7717
焉	-13.7718
焄	-13.7719
烈	-13.772
為	-13.7721
点	-13.7722
炯	-13.7723
炭	-13.7724
炎	-13.7725
炅	-13.7726
災	-13.7727
灰	-13.7728
火	-13.7729
灣	-13.773
灌	-13.7731
瀬	-13.7732
瀨	-13.7733
瀣	-13.7734
瀛	-13.7735
瀍	-13.7736
瀆	-13.7737
濯	-13.7738
濬	-13.7739
濫	-13.774
濕	-13.7741
濊	-13.7742
濃	-13.7743
濂	-13.7744
濁	-13.7745
澾	-13.7746
澮	-13.7747
澍	-13.7748
澈	-13.7749
澁	-13.775
潽	-13.7751
潼	-13.7752
潰	-13.7753
潭	-13.7754
潤	-13.7755
潟	-13.7756
潛	-13.7757
潘	-13.7758
潔	-13.7759
漸	-13.776
漳	-13.7761
漯	-13.7762
漫	-13.7763
漠	-13.7764
漑	-13.7765
漏	-13.7766
漆	-13.7767
漂	-13.7768
滸	-13.7769
滴	-13.777
滯	-13.7771
滉	-13.7772
滄	-13.7773
溫	-13.7774
溟	-13.7775
溘	-13.7776
準	-13.7777
満	-13.7778
湾	-13.7779
湯	-13.778
湜	-13.7781
湛	-13.7782
渾	-13.7783
渴	-13.7784
渲	-13.7785
港	-13.7786
渤	-13.7787
渡	-13.7788
減	-13.7789
渙	-13.779
渋	-13.7791
渉	-13.7792
清	-13.7793
添	-13.7794
淺	-13.7795
混	-13.7796
深	-13.7797
淫	-13.7798
淡	-13.7799
淚	-13.78
淙	-13.7801
淑	-13.7802
淆	-13.7803
涿	-13.7804
涼	-13.7805
涯	-13.7806
涙	-13.7807
涉	-13.7808
消	-13.7809
浸	-13.781
浴	-13.7811
浮	-13.7812
浪	-13.7813
浩	-13.7814
浣	-13.7815
浜	-13.7816
浚	-13.7817
济	-13.7818
活	-13.7819
洑	-13.782
洋	-13.7821
泥	-13.7822
泣	-13.7823
泟	-13.7824
泛	-13.7825
泌	-13.7826
泊	-13.7827
泂	-13.7828
況	-13.7829
沿	-13.783
沢	-13.7831
沐	-13.7832
沆	-13.7833
沃	-13.7834
汾	-13.7835
汶	-13.7836
汲	-13.7837
汰	-13.7838
江	-13.7839
汚	-13.784
汗	-13.7841
汕	-13.7842
汎	-13.7843
求	-13.7844
汁	-13.7845
汀	-13.7846
気	-13.7847
毫	-13.7848
毛	-13.7849
毘	-13.785
毗	-13.7851
比	-13.7852
毒	-13.7853
每	-13.7854
母	-13.7855
毋	-13.7856
毆	-13.7857
毁	-13.7858
殿	-13.7859
殼	-13.786
殷	-13.7861
段	-13.7862
殘	-13.7863
殊	-13.7864
殉	-13.7865
殆	-13.7866
殃	-13.7867
歲	-13.7868
歯	-13.7869
歩	-13.787
步	-13.7871
歡	-13.7872
歐	-13.7873
歎	-13.7874
款	-13.7875
欽	-13.7876
欺	-13.7877
次	-13.7878
欒	-13.7879
欄	-13.788
櫻	-13.7881
檜	-13.7882
檀	-13.7883
橫	-13.7884
橘	-13.7885
樺	-13.7886
樹	-13.7887
樫	-13.7888
横	-13.7889
権	-13.789
樣	-13.7891
模	-13.7892
樞	-13.7893
標	-13.7894
樓	-13.7895
樋	-13.7896
槿	-13.7897
槻	-13.7898
槪	-13.7899
槌	-13.79
構	-13.7901
榷	-13.7902
榜	-13.7903
楼	-13.7904
楷	-13.7905
楮	-13.7906
業	-13.7907
楡	-13.7908
楠	-13.7909
楞	-13.791
楚	-13.7911
楕	-13.7912
楓	-13.7913
椿	-13.7914
椧	-13.7915
検	-13.7916
椋	-13.7917
棲	-13.7918
棱	-13.7919
棧	-13.792
棟	-13.7921
棚	-13.7922
棘	-13.7923
棗	-13.7924
棄	-13.7925
梶	-13.7926
梵	-13.7927
械	-13.7928
梧	-13.7929
條	-13.793
梓	-13.7931
梅	-13.7932
桜	-13.7933
桓	-13.7934
桑	-13.7935
案	-13.7936
桂	-13.7937
栽	-13.7938
格	-13.7939
核	-13.794
株	-13.7941
栢	-13.7942
栗	-13.7943
栐	-13.7944
栄	-13.7945
査	-13.7946
柴	-13.7947
查	-13.7948
柔	-13.7949
染	-13.795
某	-13.7951
柏	-13.7952
柄	-13.7953
枷	-13.7954
架	-13.7955
枯	-13.7956
枝	-13.7957
枕	-13.7958
枓	-13.7959
析	-13.796
杲	-13.7961
杯	-13.7962
束	-13.7963
杞	-13.7964
杜	-13.7965
杖	-13.7966
材	-13.7967
杏	-13.7968
杉	-13.7969
杆	-13.797
朽	-13.7971
朱	-13.7972
札	-13.7973
末	-13.7974
期	-13.7975
朗	-13.7976
朔	-13.7977
服	-13.7978
朋	-13.7979
最	-13.798
替	-13.7981
曾	-13.7982
曼	-13.7983
曺	-13.7984
曹	-13.7985
更	-13.7986
曜	-13.7987
曙	-13.7988
曉	-13.7989
曆	-13.799
曄	-13.7991
暴	-13.7992
暮	-13.7993
暫	-13.7994
暦	-13.7995
暢	-13.7996
暗	-13.7997
暖	-13.7998
暕	-13.7999
暑	-13.8
暎	-13.8001
暉	-13.8002
暇	-13.8003
晶	-13.8004
晩	-13.8005
晦	-13.8006
晟	-13.8007
晝	-13.8008
晚	-13.8009
晋	-13.801
時	-13.8011
昻	-13.8012
昺	-13.8013
昰	-13.8014
昨	-13.8015
昧	-13.8016
易	-13.8017
昏	-13.8018
昇	-13.8019
昆	-13.802
昂	-13.8021
旽	-13.8022
旻	-13.8023
旺	-13.8024
旸	-13.8025
旱	-13.8026
旬	-13.8027
早	-13.8028
旧	-13.8029
旣	-13.803
既	-13.8031
无	-13.8032
旗	-13.8033
旋	-13.8034
旅	-13.8035
施	-13.8036
斷	-13.8037
斯	-13.8038
斬	-13.8039
斧	-13.804
斥	-13.8041
斤	-13.8042
斜	-13.8043
斐	-13.8044
斌	-13.8045
斉	-13.8046
敷	-13.8047
整	-13.8048
数	-13.8049
敦	-13.805
散	-13.8051
敢	-13.8052
教	-13.8053
敗	-13.8054
敖	-13.8055
救	-13.8056
敍	-13.8057
效	-13.8058
攻	-13.8059
改	-13.806
收	-13.8061
支	-13.8062
攬	-13.8063
攝	-13.8064
擾	-13.8065
擴	-13.8066
擲	-13.8067
擬	-13.8068
擧	-13.8069
據	-13.807
擔	-13.8071
操	-13.8072
擊	-13.8073
擇	-13.8074
擁	-13.8075
播	-13.8076
撫	-13.8077
撥	-13.8078
撤	-13.8079
撞	-13.808
撃	-13.8081
摩	-13.8082
摧	-13.8083
摠	-13.8084
摘	-13.8085
摂	-13.8086
携	-13.8087
搜	-13.8088
搖	-13.8089
損	-13.809
援	-13.8091
揮	-13.8092
揭	-13.8093
換	-13.8094
揚	-13.8095
提	-13.8096
揆	-13.8097
推	-13.8098
接	-13.8099
探	-13.81
採	-13.8101
掠	-13.8102
掛	-13.8103
掘	-13.8104
排	-13.8105
掌	-13.8106
授	-13.8107
掃	-13.8108
捨	-13.8109
捕	-13.811
捐	-13.8111
捉	-13.8112
挑	-13.8113
按	-13.8114
持	-13.8115
拾	-13.8116
拳	-13.8117
括	-13.8118
招	-13.8119
拙	-13.812
拔	-13.8121
拓	-13.8122
拒	-13.8123
拏	-13.8124
拍	-13.8125
拉	-13.8126
抽	-13.8127
抵	-13.8128
抱	-13.8129
披	-13.813
报	-13.8131
抜	-13.8132
折	-13.8133
抗	-13.8134
投	-13.8135
抑	-13.8136
把	-13.8137
抉	-13.8138
抄	-13.8139
技	-13.814
批	-13.8141
托	-13.8142
打	-13.8143
扈	-13.8144
房	-13.8145
戾	-13.8146
戸	-13.8147
戴	-13.8148
戲	-13.8149
戩	-13.815
戡	-13.8151
戞	-13.8152
戚	-13.8153
战	-13.8154
或	-13.8155
戎	-13.8156
戌	-13.8157
戊	-13.8158
戈	-13.8159
戀	-13.816
懿	-13.8161
懼	-13.8162
懺	-13.8163
懸	-13.8164
懷	-13.8165
懲	-13.8166
懋	-13.8167
應	-13.8168
懇	-13.8169
憶	-13.817
憬	-13.8171
憫	-13.8172
憩	-13.8173
憧	-13.8174
憤	-13.8175
憣	-13.8176
憙	-13.8177
憑	-13.8178
憐	-13.8179
憎	-13.818
憍	-13.8181
憂	-13.8182
慾	-13.8183
慳	-13.8184
慰	-13.8185
慮	-13.8186
慨	-13.8187
慣	-13.8188
慞	-13.8189
慙	-13.819
慘	-13.8191
態	-13.8192
慈	-13.8193
愾	-13.8194
愼	-13.8195
愧	-13.8196
愚	-13.8197
意	-13.8198
愍	-13.8199
愊	-13.82
愉	-13.8201
愈	-13.8202
愁	-13.8203
惻	-13.8204
惺	-13.8205
惶	-13.8206
惱	-13.8207
惰	-13.8208
惣	-13.8209
惡	-13.821
惜	-13.8211
惑	-13.8212
情	-13.8213
悽	-13.8214
悼	-13.8215
悳	-13.8216
悦	-13.8217
患	-13.8218
悠	-13.8219
悟	-13.822
悚	-13.8221
悔	-13.8222
悌	-13.8223
悅	-13.8224
恵	-13.8225
息	-13.8226
恪	-13.8227
恩	-13.8228
恨	-13.8229
恥	-13.823
恣	-13.8231
恢	-13.8232
恕	-13.8233
恐	-13.8234
恋	-13.8235
恆	-13.8236
恂	-13.8237
怪	-13.8238
怨	-13.8239
急	-13.824
怠	-13.8241
怛	-13.8242
怖	-13.8243
怒	-13.8244
忽	-13.8245
念	-13.8246
忱	-13.8247
忭	-13.8248
忠	-13.8249
忝	-13.825
忙	-13.8251
忘	-13.8252
忌	-13.8253
忉	-13.8254
必	-13.8255
徽	-13.8256
徹	-13.8257
徵	-13.8258
微	-13.8259
循	-13.826
復	-13.8261
御	-13.8262
從	-13.8263
徙	-13.8264
得	-13.8265
徒	-13.8266
徑	-13.8267
徐	-13.8268
後	-13.8269
律	-13.827
待	-13.8271
征	-13.8272
往	-13.8273
彿	-13.8274
役	-13.8275
彷	-13.8276
影	-13.8277
彰	-13.8278
彫	-13.8279
彪	-13.828
彦	-13.8281
形	-13.8282
彙	-13.8283
彗	-13.8284
录	-13.8285
当	-13.8286
彌	-13.8287
彈	-13.8288
彅	-13.8289
弾	-13.829
弼	-13.8291
强	-13.8292
弱	-13.8293
弦	-13.8294
弥	-13.8295
弖	-13.8296
引	-13.8297
弔	-13.8298
式	-13.8299
弊	-13.83
弄	-13.8301
弃	-13.8302
廻	-13.8303
廷	-13.8304
廮	-13.8305
廬	-13.8306
廢	-13.8307
廠	-13.8308
廟	-13.8309
廐	-13.831
廊	-13.8311
廉	-13.8312
廃	-13.8313
廂	-13.8314
庾	-13.8315
庸	-13.8316
庶	-13.8317
庭	-13.8318
庫	-13.8319
座	-13.832
庚	-13.8321
序	-13.8322
床	-13.8323
庆	-13.8324
広	-13.8325
庁	-13.8326
广	-13.8327
幾	-13.8328
幽	-13.8329
幼	-13.833
幹	-13.8331
幸	-13.8332
幷	-13.8333
平	-13.8334
幣	-13.8335
幢	-13.8336
幡	-13.8337
幅	-13.8338
幀	-13.8339
帽	-13.834
帶	-13.8341
帳	-13.8342
帯	-13.8343
席	-13.8344
帥	-13.8345
巾	-13.8346
巻	-13.8347
巷	-13.8348
巴	-13.8349
巳	-13.835
已	-13.8351
己	-13.8352
差	-13.8353
巧	-13.8354
工	-13.8355
巡	-13.8356
嶽	-13.8357
嶷	-13.8358
嶧	-13.8359
嶋	-13.836
嵯	-13.8361
崖	-13.8362
崇	-13.8363
峻	-13.8364
峰	-13.8365
峯	-13.8366
峡	-13.8367
峠	-13.8368
岳	-13.8369
岩	-13.837
岡	-13.8371
屹	-13.8372
屬	-13.8373
層	-13.8374
屢	-13.8375
屠	-13.8376
屛	-13.8377
展	-13.8378
屋	-13.8379
届	-13.838
屈	-13.8381
局	-13.8382
尾	-13.8383
尼	-13.8384
尺	-13.8385
尸	-13.8386
就	-13.8387
尤	-13.8388
尚	-13.8389
尖	-13.839
少	-13.8391
導	-13.8392
尊	-13.8393
尉	-13.8394
專	-13.8395
将	-13.8396
射	-13.8397
専	-13.8398
封	-13.8399
寿	-13.84
寸	-13.8401
寵	-13.8402
寯	-13.8403
寮	-13.8404
寬	-13.8405
審	-13.8406
實	-13.8407
寢	-13.8408
寡	-13.8409
寛	-13.841
寘	-13.8411
密	-13.8412
寅	-13.8413
寃	-13.8414
宿	-13.8415
容	-13.8416
宸	-13.8417
宴	-13.8418
害	-13.8419
宰	-13.842
宪	-13.8421
宦	-13.8422
宣	-13.8423
客	-13.8424
实	-13.8425
宝	-13.8426
宜	-13.8427
宙	-13.8428
宏	-13.8429
完	-13.843
宋	-13.8431
守	-13.8432
宇	-13.8433
宅	-13.8434
宁	-13.8435
孰	-13.8436
孫	-13.8437
孤	-13.8438
季	-13.8439
孜	-13.844
孚	-13.8441
存	-13.8442
孔	-13.8443
嬉	-13.8444
嫩	-13.8445
嫡	-13.8446
嫉	-13.8447
嫄	-13.8448
媒	-13.8449
婬	-13.845
婦	-13.8451
婢	-13.8452
婚	-13.8453
婕	-13.8454
婉	-13.8455
娛	-13.8456
娘	-13.8457
娑	-13.8458
威	-13.8459
姿	-13.846
姻	-13.8461
姸	-13.8462
姬	-13.8463
姫	-13.8464
姪	-13.8465
姦	-13.8466
姝	-13.8467
姓	-13.8468
姒	-13.8469
姑	-13.847
姊	-13.8471
姉	-13.8472
妾	-13.8473
妻	-13.8474
妹	-13.8475
妨	-13.8476
妥	-13.8477
妤	-13.8478
妓	-13.8479
妒	-13.848
妄	-13.8481
妃	-13.8482
奴	-13.8483
奮	-13.8484
奭	-13.8485
奬	-13.8486
奪	-13.8487
奥	-13.8488
奠	-13.8489
奚	-13.849
奔	-13.8491
契	-13.8492
奏	-13.8493
夷	-13.8494
失	-13.8495
央	-13.8496
夭	-13.8497
夕	-13.8498
変	-13.8499
壺	-13.85
壹	-13.8501
売	-13.8502
壱	-13.8503
壯	-13.8504
壤	-13.8505
壞	-13.8506
壓	-13.8507
壑	-13.8508
壇	-13.8509
壁	-13.851
墻	-13.8511
墳	-13.8512
墮	-13.8513
墨	-13.8514
墟	-13.8515
墜	-13.8516
増	-13.8517
塗	-13.8518
塔	-13.8519
塊	-13.852
堯	-13.8521
堤	-13.8522
堣	-13.8523
堡	-13.8524
堈	-13.8525
堅	-13.8526
堀	-13.8527
執	-13.8528
埴	-13.8529
埰	-13.853
域	-13.8531
埔	-13.8532
埋	-13.8533
埈	-13.8534
型	-13.8535
垂	-13.8536
坦	-13.8537
坤	-13.8538
坡	-13.8539
坑	-13.854
坂	-13.8541
址	-13.8542
场	-13.8543
圭	-13.8544
團	-13.8545
圓	-13.8546
園	-13.8547
圍	-13.8548
圈	-13.8549
图	-13.855
固	-13.8551
図	-13.8552
困	-13.8553
回	-13.8554
囚	-13.8555
囑	-13.8556
囊	-13.8557
嚼	-13.8558
嚴	-13.8559
嚆	-13.856
噫	-13.8561
嘗	-13.8562
嘉	-13.8563
嘆	-13.8564
嗣	-13.8565
嗢	-13.8566
嗜	-13.8567
嗚	-13.8568
嗒	-13.8569
嗈	-13.857
喻	-13.8571
單	-13.8572
喬	-13.8573
喪	-13.8574
喣	-13.8575
喊	-13.8576
喉	-13.8577
喈	-13.8578
喆	-13.8579
善	-13.858
啓	-13.8581
問	-13.8582
唱	-13.8583
唯	-13.8584
哭	-13.8585
哉	-13.8586
咽	-13.8587
咸	-13.8588
咲	-13.8589
命	-13.859
呼	-13.8591
味	-13.8592
呪	-13.8593
呑	-13.8594
告	-13.8595
呈	-13.8596
呂	-13.8597
吾	-13.8598
吹	-13.8599
吸	-13.86
吳	-13.8601
含	-13.8602
否	-13.8603
吟	-13.8604
吝	-13.8605
吒	-13.8606
吐	-13.8607
吏	-13.8608
吉	-13.8609
各	-13.861
号	-13.8611
右	-13.8612
叱	-13.8613
台	-13.8614
可	-13.8615
召	-13.8616
叫	-13.8617
另	-13.8618
句	-13.8619
叢	-13.862
叛	-13.8621
受	-13.8622
叔	-13.8623
双	-13.8624
友	-13.8625
及	-13.8626
又	-13.8627
參	-13.8628
县	-13.8629
厭	-13.863
厦	-13.8631
厥	-13.8632
厚	-13.8633
厄	-13.8634
卿	-13.8635
卷	-13.8636
卵	-13.8637
却	-13.8638
即	-13.8639
危	-13.864
卦	-13.8641
卢	-13.8642
占	-13.8643
卞	-13.8644
卜	-13.8645
博	-13.8646
卓	-13.8647
卒	-13.8648
卑	-13.8649
华	-13.865
半	-13.8651
午	-13.8652
升	-13.8653
卄	-13.8654
医	-13.8655
区	-13.8656
匹	-13.8657
匡	-13.8658
包	-13.8659
勾	-13.866
勸	-13.8661
勵	-13.8662
勤	-13.8663
勢	-13.8664
募	-13.8665
勞	-13.8666
勉	-13.8667
勇	-13.8668
勅	-13.8669
労	-13.867
劫	-13.8671
努	-13.8672
助	-13.8673
劣	-13.8674
务	-13.8675
功	-13.8676
力	-13.8677
劒	-13.8678
劍	-13.8679
劃	-13.868
創	-13.8681
割	-13.8682
剛	-13.8683
剎	-13.8684
削	-13.8685
則	-13.8686
刻	-13.8687
券	-13.8688
刷	-13.8689
制	-13.869
到	-13.8691
刪	-13.8692
判	-13.8693
列	-13.8694
刑	-13.8695
刃	-13.8696
刀	-13.8697
出	-13.8698
凱	-13.8699
処	-13.87
凝	-13.8701
凍	-13.8702
冽	-13.8703
冷	-13.8704
冬	-13.8705
冨	-13.8706
冥	-13.8707
冠	-13.8708
写	-13.8709
冕	-13.871
冒	-13.8711
再	-13.8712
冊	-13.8713
冈	-13.8714
円	-13.8715
内	-13.8716
冀	-13.8717
兼	-13.8718
具	-13.8719
其	-13.872
关	-13.8721
共	-13.8722
兰	-13.8723
兮	-13.8724
八	-13.8725
兪	-13.8726
兩	-13.8727
兢	-13.8728
兜	-13.8729
党	-13.873
兗	-13.8731
兔	-13.8732
兎	-13.8733
免	-13.8734
兌	-13.8735
克	-13.8736
先	-13.8737
兆	-13.8738
充	-13.8739
元	-13.874
儹	-13.8741
儡	-13.8742
償	-13.8743
儒	-13.8744
億	-13.8745
僻	-13.8746
價	-13.8747
僧	-13.8748
僞	-13.8749
僚	-13.875
僖	-13.8751
僕	-13.8752
僊	-13.8753
僉	-13.8754
僅	-13.8755
傾	-13.8756
債	-13.8757
傲	-13.8758
催	-13.8759
備	-13.876
傑	-13.8761
傍	-13.8762
傀	-13.8763
偶	-13.8764
偵	-13.8765
側	-13.8766
停	-13.8767
偏	-13.8768
偉	-13.8769
假	-13.877
倻	-13.8771
倭	-13.8772
倫	-13.8773
倩	-13.8774
倧	-13.8775
値	-13.8776
倣	-13.8777
借	-13.8778
倚	-13.8779
候	-13.878
倒	-13.8781
們	-13.8782
倏	-13.8783
倍	-13.8784
個	-13.8785
俺	-13.8786
俳	-13.8787
俱	-13.8788
俗	-13.8789
促	-13.879
便	-13.8791
侶	-13.8792
侵	-13.8793
侯	-13.8794
侮	-13.8795
価	-13.8796
依	-13.8797
供	-13.8798
侏	-13.8799
侍	-13.88
例	-13.8801
來	-13.8802
侃	-13.8803
佻	-13.8804
佺	-13.8805
併	-13.8806
佛	-13.8807
余	-13.8808
何	-13.8809
佑	-13.881
住	-13.8811
低	-13.8812
位	-13.8813
似	-13.8814
伸	-13.8815
伴	-13.8816
伯	-13.8817
伦	-13.8818
伝	-13.8819
会	-13.882
众	-13.8821
伐	-13.8822
伏	-13.8823
伍	-13.8824
伊	-13.8825
企	-13.8826
仰	-13.8827
以	-13.8828
代	-13.8829
仙	-13.883
付	-13.8831
仗	-13.8832
他	-13.8833
仕	-13.8834
仍	-13.8835
仇	-13.8836
什	-13.8837
亮	-13.8838
享	-13.8839
亦	-13.884
亥	-13.8841
交	-13.8842
亡	-13.8843
亞	-13.8844
亜	-13.8845
亚	-13.8846
互	-13.8847
于	-13.8848
予	-13.8849
了	-13.885
亂	-13.8851
乾	-13.8852
乱	-13.8853
书	-13.8854
乙	-13.8855
乖	-13.8856
乎	-13.8857
久	-13.8858
乃	-13.8859
丹	-13.886
丸	-13.8861
串	-13.8862
並	-13.8863
両	-13.8864
东	-13.8865
丙	-13.8866
丘	-13.8867
且	-13.8868
丑	-13.8869
丈	-13.887
万	-13.8871
䜌	-13.8872
㫖	-13.8873
㥆	-13.8874
㎾	-13.8875
㎸	-13.8876
㎞	-13.8877
㎝	-13.8878
㎒	-13.8879
㎑	-13.888
㎐	-13.8881
㎏	-13.8882
㈜	-13.8883
ㆍ	-13.8884
ㅡ	-13.8885
ㅑ	-13.8886
ㅎ	-13.8887
ㅍ	-13.8888
ㅌ	-13.8889
ㅋ	-13.889
ㅊ	-13.8891
ㅈ	-13.8892
ㅇ	-13.8893
ㅅ	-13.8894
ㅂ	-13.8895
ㅁ	-13.8896
ㄹ	-13.8897
ㄷ	-13.8898
ㄴ	-13.8899
ㄱ	-13.89
ヶ	-13.8901
ヲ	-13.8902
ワ	-13.8903
ヨ	-13.8904
ペ	-13.8905
ピ	-13.8906
ビ	-13.8907
パ	-13.8908
ネ	-13.8909
デ	-13.891
ソ	-13.8911
ゼ	-13.8912
ズ	-13.8913
ザ	-13.8914
ギ	-13.8915
オ	-13.8916
ェ	-13.8917
ろ	-13.8918
れ	-13.8919
ょ	-13.892
ゃ	-13.8921
ぽ	-13.8922
ぼ	-13.8923
ぶ	-13.8924
び	-13.8925
ば	-13.8926
ね	-13.8927
づ	-13.8928
ぞ	-13.8929
ぜ	-13.893
ず	-13.8931
ぐ	-13.8932
ぎ	-13.8933
ぁ	-13.8934
】	-13.8935
【	-13.8936
々	-13.8937
〃	-13.8938
。	-13.8939
　	-13.894
Ⱑ	-13.8941
Ⱐ	-13.8942
Ⱏ	-13.8943
Ⱄ	-13.8944
Ⱁ	-13.8945
Ⱀ	-13.8946
Ⰾ	-13.8947
Ⰽ	-13.8948
Ⰲ	-13.8949
⨆	-13.895
⟺	-13.8951
➄	-13.8952
➃	-13.8953
➂	-13.8954
➁	-13.8955
♢	-13.8956
♡	-13.8957
♠	-13.8958
♂	-13.8959
☞	-13.896
☉	-13.8961
☆	-13.8962
◇	-13.8963
▼	-13.8964
▲	-13.8965
□	-13.8966
║	-13.8967
ⓧ	-13.8968
ⓒ	-13.8969
ⓑ	-13.897
ⓐ	-13.8971
⑫	-13.8972
⑪	-13.8973
⑩	-13.8974
⑨	-13.8975
⑧	-13.8976
⑦	-13.8977
⑥	-13.8978
⑤	-13.8979
④	-13.898
③	-13.8981
②	-13.8982
①	-13.8983
⋅	-13.8984
⋃	-13.8985
⊊	-13.8986
⊆	-13.8987
⊂	-13.8988
≫	-13.8989
≪	-13.899
≤	-13.8991
≢	-13.8992
≡	-13.8993
≠	-13.8994
≈	-13.8995
≅	-13.8996
∽	-13.8997
∩	-13.8998
∧	-13.8999
∞	-13.9
√	-13.9001
∙	-13.9002
∘	-13.9003
∗	-13.9004
∖	-13.9005
∑	-13.9006
∉	-13.9007
∈	-13.9008
∅	-13.9009
∂	-13.901
∀	-13.9011
⇒	-13.9012
⇆	-13.9013
↾	-13.9014
↴	-13.9015
←	-13.9016
ⅳ	-13.9017
Ⅸ	-13.9018
Ⅶ	-13.9019
Ⅳ	-13.902
Ⅲ	-13.9021
Ⅱ	-13.9022
Ⅰ	-13.9023
⅔	-13.9024
ℵ	-13.9025
ℤ	-13.9026
™	-13.9027
ℝ	-13.9028
ℚ	-13.9029
ℙ	-13.903
ℕ	-13.9031
ℓ	-13.9032
ℍ	-13.9033
℃	-13.9034
ℂ	-13.9035
€	-13.9036
₩	-13.9037
⁴	-13.9038
⁡	-13.9039
″	-13.904
‬	-13.9041
‪	-13.9042
‧	-13.9043
…	-13.9044
‥	-13.9045
․	-13.9046
‡	-13.9047
†	-13.9048
‐	-13.9049
‎	-13.905
‌	-13.9051
​	-13.9052
 	-13.9053
ῦ	-13.9054
ῖ	-13.9055
᾽	-13.9056
ὸ	-13.9057
ὴ	-13.9058
ὕ	-13.9059
ὑ	-13.906
ὐ	-13.9061
Ὁ	-13.9062
ὁ	-13.9063
ἰ	-13.9064
ἐ	-13.9065
Ἀ	-13.9066
ἀ	-13.9067
ỹ	-13.9068
ự	-13.9069
ờ	-13.907
ộ	-13.9071
ổ	-13.9072
ố	-13.9073
ỏ	-13.9074
ề	-13.9075
ẽ	-13.9076
ặ	-13.9077
ẩ	-13.9078
ầ	-13.9079
Ấ	-13.908
ẞ	-13.9081
ṛ	-13.9082
᷉	-13.9083
ᱲ	-13.9084
ᱱ	-13.9085
ᱥ	-13.9086
ᱤ	-13.9087
ᱟ	-13.9088
ᱛ	-13.9089
ᨘ	-13.909
ᨗ	-13.9091
ᨕ	-13.9092
ᨔ	-13.9093
ᨅ	-13.9094
ᨁ	-13.9095
្	-13.9096
ែ	-13.9097
េ	-13.9098
ា	-13.9099
ស	-13.91
ល	-13.9101
រ	-13.9102
ម	-13.9103
ភ	-13.9104
ប	-13.9105
ន	-13.9106
ទ	-13.9107
ខ	-13.9108
ᔭ	-13.9109
ᓄ	-13.911
ᓀ	-13.9111
ᒃ	-13.9112
ᑦ	-13.9113
ᑐ	-13.9114
ᑎ	-13.9115
ᐦ	-13.9116
ᐣ	-13.9117
ᐏ	-13.9118
ᐍ	-13.9119
ᐃ	-13.912
Ꮳ	-13.9121
Ꮃ	-13.9122
Ꭹ	-13.9123
ግ	-13.9124
አ	-13.9125
ኛ	-13.9126
ት	-13.9127
ር	-13.9128
ማ	-13.9129
ᆫ	-13.913
ᅵ	-13.9131
ᄭ	-13.9132
ქ	-13.9133
უ	-13.9134
რ	-13.9135
მ	-13.9136
ლ	-13.9137
ი	-13.9138
თ	-13.9139
გ	-13.914
ა	-13.9141
ြ	-13.9142
်	-13.9143
ာ	-13.9144
သ	-13.9145
မ	-13.9146
ဘ	-13.9147
န	-13.9148
ྲ	-13.9149
ྫ	-13.915
ོ	-13.9151
ུ	-13.9152
ི	-13.9153
ས	-13.9154
ཤ	-13.9155
ར	-13.9156
ཡ	-13.9157
མ	-13.9158
བ	-13.9159
ཕ	-13.916
ད	-13.9161
ཐ	-13.9162
ཇ	-13.9163
ཆ	-13.9164
ང	-13.9165
ག	-13.9166
ཁ	-13.9167
ཀ	-13.9168
་	-13.9169
າ	-13.917
ວ	-13.9171
ລ	-13.9172
่	-13.9173
็	-13.9174
แ	-13.9175
เ	-13.9176
ู	-13.9177
ึ	-13.9178
ี	-13.9179
ิ	-13.918
า	-13.9181
ั	-13.9182
ะ	-13.9183
อ	-13.9184
ห	-13.9185
ส	-13.9186
ศ	-13.9187
ว	-13.9188
ร	-13.9189
ม	-13.919
ภ	-13.9191
พ	-13.9192
บ	-13.9193
น	-13.9194
ถ	-13.9195
ต	-13.9196
ด	-13.9197
ซ	-13.9198
ช	-13.9199
จ	-13.92
ง	-13.9201
ค	-13.9202
ก	-13.9203
ි	-13.9204
හ	-13.9205
ස	-13.9206
ල	-13.9207
ං	-13.9208
್	-13.9209
ು	-13.921
ಳ	-13.9211
ನ	-13.9212
ತ	-13.9213
ಡ	-13.9214
ಕ	-13.9215
ె	-13.9216
ు	-13.9217
ల	-13.9218
త	-13.9219
గ	-13.922
ି	-13.9221
଼	-13.9222
ଡ	-13.9223
ଓ	-13.9224
ଆ	-13.9225
ુ	-13.9226
ી	-13.9227
ા	-13.9228
ર	-13.9229
ત	-13.923
જ	-13.9231
ગ	-13.9232
ੰ	-13.9233
ੀ	-13.9234
ਾ	-13.9235
ਬ	-13.9236
ਪ	-13.9237
ਜ	-13.9238
্	-13.9239
ু	-13.924
ী	-13.9241
ি	-13.9242
়	-13.9243
স	-13.9244
ষ	-13.9245
র	-13.9246
য	-13.9247
ম	-13.9248
প	-13.9249
ণ	-13.925
অ	-13.9251
्	-13.9252
ो	-13.9253
ॉ	-13.9254
ै	-13.9255
े	-13.9256
ृ	-13.9257
ू	-13.9258
ु	-13.9259
ी	-13.926
ि	-13.9261
ा	-13.9262
ह	-13.9263
स	-13.9264
ष	-13.9265
श	-13.9266
व	-13.9267
ल	-13.9268
र	-13.9269
य	-13.927
म	-13.9271
भ	-13.9272
ब	-13.9273
प	-13.9274
न	-13.9275
ध	-13.9276
द	-13.9277
थ	-13.9278
त	-13.9279
ण	-13.928
ड	-13.9281
ठ	-13.9282
ट	-13.9283
ज	-13.9284
च	-13.9285
ग	-13.9286
क	-13.9287
ई	-13.9288
इ	-13.9289
अ	-13.929
ं	-13.9291
ް	-13.9292
ެ	-13.9293
ި	-13.9294
ަ	-13.9295
ސ	-13.9296
ދ	-13.9297
ވ	-13.9298
ބ	-13.9299
ހ	-13.93
ܪ	-13.9301
ܡ	-13.9302
ܝ	-13.9303
ܐ	-13.9304
ە	-13.9305
ۊ	-13.9306
ۇ	-13.9307
ہ	-13.9308
ں	-13.9309
ڵ	-13.931
ښ	-13.9311
ڕ	-13.9312
ڌ	-13.9313
چ	-13.9314
پ	-13.9315
ٲ	-13.9316
ِ	-13.9317
ُ	-13.9318
ٍ	-13.9319
ى	-13.932
ن	-13.9321
م	-13.9322
ك	-13.9323
ق	-13.9324
غ	-13.9325
ظ	-13.9326
ط	-13.9327
ص	-13.9328
ش	-13.9329
ز	-13.933
خ	-13.9331
ح	-13.9332
ث	-13.9333
ئ	-13.9334
إ	-13.9335
أ	-13.9336
ء	-13.9337
נ	-13.9338
ן	-13.9339
מ	-13.934
ל	-13.9341
ט	-13.9342
ח	-13.9343
ו	-13.9344
ה	-13.9345
ׂ	-13.9346
ּ	-13.9347
ֹ	-13.9348
ַ	-13.9349
ֶ	-13.935
ֲ	-13.9351
ְ	-13.9352
ւ	-13.9353
ր	-13.9354
տ	-13.9355
ն	-13.9356
յ	-13.9357
մ	-13.9358
հ	-13.9359
է	-13.936
ե	-13.9361
ա	-13.9362
Հ	-13.9363
Ա	-13.9364
ԯ	-13.9365
Ԯ	-13.9366
ԭ	-13.9367
Ԭ	-13.9368
ԫ	-13.9369
Ԫ	-13.937
ԩ	-13.9371
Ԩ	-13.9372
ԧ	-13.9373
Ԧ	-13.9374
ԥ	-13.9375
Ԥ	-13.9376
ԣ	-13.9377
Ԣ	-13.9378
ԡ	-13.9379
Ԡ	-13.938
ԟ	-13.9381
Ԟ	-13.9382
ԝ	-13.9383
Ԝ	-13.9384
ԛ	-13.9385
Ԛ	-13.9386
ԙ	-13.9387
Ԙ	-13.9388
ԗ	-13.9389
Ԗ	-13.939
ԕ	-13.9391
Ԕ	-13.9392
ԓ	-13.9393
Ԓ	-13.9394
ԑ	-13.9395
Ԑ	-13.9396
ԏ	-13.9397
Ԏ	-13.9398
ԍ	-13.9399
Ԍ	-13.94
ԋ	-13.9401
Ԋ	-13.9402
ԉ	-13.9403
Ԉ	-13.9404
ԇ	-13.9405
Ԇ	-13.9406
ԅ	-13.9407
Ԅ	-13.9408
ԃ	-13.9409
Ԃ	-13.941
ԁ	-13.9411
Ԁ	-13.9412
ӿ	-13.9413
Ӿ	-13.9414
ӽ	-13.9415
Ӽ	-13.9416
ӻ	-13.9417
Ӻ	-13.9418
ӹ	-13.9419
Ӹ	-13.942
ӷ	-13.9421
Ӷ	-13.9422
ӵ	-13.9423
Ӵ	-13.9424
ӳ	-13.9425
Ӳ	-13.9426
ӱ	-13.9427
Ӱ	-13.9428
ӯ	-13.9429
Ӯ	-13.943
ӭ	-13.9431
Ӭ	-13.9432
ӫ	-13.9433
Ӫ	-13.9434
ө	-13.9435
Ө	-13.9436
ӧ	-13.9437
Ӧ	-13.9438
ӥ	-13.9439
Ӥ	-13.944
ӣ	-13.9441
Ӣ	-13.9442
ӡ	-13.9443
Ӡ	-13.9444
ӟ	-13.9445
Ӟ	-13.9446
ӝ	-13.9447
Ӝ	-13.9448
ӛ	-13.9449
Ӛ	-13.945
ә	-13.9451
Ә	-13.9452
ӗ	-13.9453
Ӗ	-13.9454
ӕ	-13.9455
Ӕ	-13.9456
ӓ	-13.9457
Ӓ	-13.9458
ӑ	-13.9459
Ӑ	-13.946
ӏ	-13.9461
ӎ	-13.9462
Ӎ	-13.9463
ӌ	-13.9464
Ӌ	-13.9465
ӊ	-13.9466
Ӊ	-13.9467
ӈ	-13.9468
Ӈ	-13.9469
ӆ	-13.947
Ӆ	-13.9471
ӄ	-13.9472
Ӄ	-13.9473
ӂ	-13.9474
Ӂ	-13.9475
Ӏ	-13.9476
ҿ	-13.9477
Ҿ	-13.9478
ҽ	-13.9479
Ҽ	-13.948
һ	-13.9481
Һ	-13.9482
ҹ	-13.9483
Ҹ	-13.9484
ҷ	-13.9485
Ҷ	-13.9486
ҵ	-13.9487
Ҵ	-13.9488
ҳ	-13.9489
Ҳ	-13.949
ұ	-13.9491
Ұ	-13.9492
ү	-13.9493
Ү	-13.9494
ҭ	-13.9495
Ҭ	-13.9496
ҫ	-13.9497
Ҫ	-13.9498
ҩ	-13.9499
Ҩ	-13.95
ҧ	-13.9501
Ҧ	-13.9502
ҥ	-13.9503
Ҥ	-13.9504
ң	-13.9505
Ң	-13.9506
ҡ	-13.9507
Ҡ	-13.9508
ҟ	-13.9509
Ҟ	-13.951
ҝ	-13.9511
Ҝ	-13.9512
қ	-13.9513
Қ	-13.9514
ҙ	-13.9515
Ҙ	-13.9516
җ	-13.9517
Җ	-13.9518
ҕ	-13.9519
Ҕ	-13.952
ғ	-13.9521
Ғ	-13.9522
ґ	-13.9523
Ґ	-13.9524
ҏ	-13.9525
Ҏ	-13.9526
ҍ	-13.9527
Ҍ	-13.9528
ҋ	-13.9529
Ҋ	-13.953
҉	-13.9531
҈	-13.9532
҅	-13.9533
҄	-13.9534
҃	-13.9535
҂	-13.9536
ҁ	-13.9537
Ҁ	-13.9538
ѿ	-13.9539
Ѿ	-13.954
ѽ	-13.9541
Ѽ	-13.9542
ѻ	-13.9543
Ѻ	-13.9544
ѹ	-13.9545
Ѹ	-13.9546
ѷ	-13.9547
Ѷ	-13.9548
ѵ	-13.9549
Ѵ	-13.955
ѳ	-13.9551
Ѳ	-13.9552
ѱ	-13.9553
Ѱ	-13.9554
ѯ	-13.9555
Ѯ	-13.9556
ѭ	-13.9557
Ѭ	-13.9558
ѫ	-13.9559
Ѫ	-13.956
ѩ	-13.9561
Ѩ	-13.9562
ѧ	-13.9563
Ѧ	-13.9564
ѥ	-13.9565
Ѥ	-13.9566
ѣ	-13.9567
Ѣ	-13.9568
ѡ	-13.9569
Ѡ	-13.957
џ	-13.9571
ў	-13.9572
ѝ	-13.9573
ќ	-13.9574
ћ	-13.9575
њ	-13.9576
љ	-13.9577
ј	-13.9578
і	-13.9579
ѕ	-13.958
є	-13.9581
ѓ	-13.9582
ђ	-13.9583
ё	-13.9584
ѐ	-13.9585
я	-13.9586
ю	-13.9587
э	-13.9588
ы	-13.9589
щ	-13.959
ш	-13.9591
ч	-13.9592
ц	-13.9593
ф	-13.9594
м	-13.9595
з	-13.9596
ж	-13.9597
б	-13.9598
Я	-13.9599
Ю	-13.96
Э	-13.9601
Ь	-13.9602
Ы	-13.9603
Ъ	-13.9604
Щ	-13.9605
Ш	-13.9606
Ч	-13.9607
Ц	-13.9608
Х	-13.9609
Ф	-13.961
Т	-13.9611
П	-13.9612
О	-13.9613
Н	-13.9614
Л	-13.9615
К	-13.9616
Й	-13.9617
И	-13.9618
З	-13.9619
Ж	-13.962
Е	-13.9621
Д	-13.9622
Г	-13.9623
В	-13.9624
А	-13.9625
Џ	-13.9626
Ў	-13.9627
Ѝ	-13.9628
Ќ	-13.9629
Ћ	-13.963
[...]
